node {
  name: "global_step/Initializer/zeros"
  op: "Const"
  attr {
    key: "_class"
    value {
      list {
        s: "loc:@global_step"
      }
    }
  }
  attr {
    key: "_output_shapes"
    value {
      list {
        shape {
        }
      }
    }
  }
  attr {
    key: "dtype"
    value {
      type: DT_INT64
    }
  }
  attr {
    key: "value"
    value {
      tensor {
        dtype: DT_INT64
        tensor_shape {
        }
        int64_val: 0
      }
    }
  }
}
node {
  name: "global_step"
  op: "VariableV2"
  attr {
    key: "_class"
    value {
      list {
        s: "loc:@global_step"
      }
    }
  }
  attr {
    key: "_output_shapes"
    value {
      list {
        shape {
        }
      }
    }
  }
  attr {
    key: "container"
    value {
      s: ""
    }
  }
  attr {
    key: "dtype"
    value {
      type: DT_INT64
    }
  }
  attr {
    key: "shape"
    value {
      shape {
      }
    }
  }
  attr {
    key: "shared_name"
    value {
      s: ""
    }
  }
}
node {
  name: "global_step/Assign"
  op: "Assign"
  input: "global_step"
  input: "global_step/Initializer/zeros"
  attr {
    key: "T"
    value {
      type: DT_INT64
    }
  }
  attr {
    key: "_class"
    value {
      list {
        s: "loc:@global_step"
      }
    }
  }
  attr {
    key: "_output_shapes"
    value {
      list {
        shape {
        }
      }
    }
  }
  attr {
    key: "use_locking"
    value {
      b: true
    }
  }
  attr {
    key: "validate_shape"
    value {
      b: true
    }
  }
}
node {
  name: "global_step/read"
  op: "Identity"
  input: "global_step"
  attr {
    key: "T"
    value {
      type: DT_INT64
    }
  }
  attr {
    key: "_class"
    value {
      list {
        s: "loc:@global_step"
      }
    }
  }
  attr {
    key: "_output_shapes"
    value {
      list {
        shape {
        }
      }
    }
  }
}
node {
  name: "global_step/IsVariableInitialized"
  op: "IsVariableInitialized"
  input: "global_step"
  attr {
    key: "_class"
    value {
      list {
        s: "loc:@global_step"
      }
    }
  }
  attr {
    key: "_output_shapes"
    value {
      list {
        shape {
        }
      }
    }
  }
  attr {
    key: "dtype"
    value {
      type: DT_INT64
    }
  }
}
node {
  name: "global_step/cond/Switch"
  op: "Switch"
  input: "global_step/IsVariableInitialized"
  input: "global_step/IsVariableInitialized"
  attr {
    key: "T"
    value {
      type: DT_BOOL
    }
  }
  attr {
    key: "_output_shapes"
    value {
      list {
        shape {
        }
        shape {
        }
      }
    }
  }
}
node {
  name: "global_step/cond/switch_t"
  op: "Identity"
  input: "global_step/cond/Switch:1"
  attr {
    key: "T"
    value {
      type: DT_BOOL
    }
  }
  attr {
    key: "_output_shapes"
    value {
      list {
        shape {
        }
      }
    }
  }
}
node {
  name: "global_step/cond/switch_f"
  op: "Identity"
  input: "global_step/cond/Switch"
  attr {
    key: "T"
    value {
      type: DT_BOOL
    }
  }
  attr {
    key: "_output_shapes"
    value {
      list {
        shape {
        }
      }
    }
  }
}
node {
  name: "global_step/cond/pred_id"
  op: "Identity"
  input: "global_step/IsVariableInitialized"
  attr {
    key: "T"
    value {
      type: DT_BOOL
    }
  }
  attr {
    key: "_output_shapes"
    value {
      list {
        shape {
        }
      }
    }
  }
}
node {
  name: "global_step/cond/read"
  op: "Identity"
  input: "global_step/cond/read/Switch:1"
  attr {
    key: "T"
    value {
      type: DT_INT64
    }
  }
  attr {
    key: "_output_shapes"
    value {
      list {
        shape {
        }
      }
    }
  }
}
node {
  name: "global_step/cond/read/Switch"
  op: "RefSwitch"
  input: "global_step"
  input: "global_step/cond/pred_id"
  attr {
    key: "T"
    value {
      type: DT_INT64
    }
  }
  attr {
    key: "_class"
    value {
      list {
        s: "loc:@global_step"
      }
    }
  }
  attr {
    key: "_output_shapes"
    value {
      list {
        shape {
        }
        shape {
        }
      }
    }
  }
}
node {
  name: "global_step/cond/Switch_1"
  op: "Switch"
  input: "global_step/Initializer/zeros"
  input: "global_step/cond/pred_id"
  attr {
    key: "T"
    value {
      type: DT_INT64
    }
  }
  attr {
    key: "_class"
    value {
      list {
        s: "loc:@global_step"
      }
    }
  }
  attr {
    key: "_output_shapes"
    value {
      list {
        shape {
        }
        shape {
        }
      }
    }
  }
}
node {
  name: "global_step/cond/Merge"
  op: "Merge"
  input: "global_step/cond/Switch_1"
  input: "global_step/cond/read"
  attr {
    key: "N"
    value {
      i: 2
    }
  }
  attr {
    key: "T"
    value {
      type: DT_INT64
    }
  }
  attr {
    key: "_output_shapes"
    value {
      list {
        shape {
        }
        shape {
        }
      }
    }
  }
}
node {
  name: "global_step/add/y"
  op: "Const"
  attr {
    key: "_output_shapes"
    value {
      list {
        shape {
        }
      }
    }
  }
  attr {
    key: "dtype"
    value {
      type: DT_INT64
    }
  }
  attr {
    key: "value"
    value {
      tensor {
        dtype: DT_INT64
        tensor_shape {
        }
        int64_val: 0
      }
    }
  }
}
node {
  name: "global_step/add"
  op: "Add"
  input: "global_step/cond/Merge"
  input: "global_step/add/y"
  attr {
    key: "T"
    value {
      type: DT_INT64
    }
  }
  attr {
    key: "_output_shapes"
    value {
      list {
        shape {
        }
      }
    }
  }
}
node {
  name: "tensors/component_0"
  op: "Const"
  device: "/device:CPU:0"
  attr {
    key: "_output_shapes"
    value {
      list {
        shape {
          dim {
            size: 31250
          }
          dim {
            size: 2
          }
        }
      }
    }
  }
  attr {
    key: "dtype"
    value {
      type: DT_DOUBLE
    }
  }
  attr {
    key: "value"
    value {
      tensor {
        dtype: DT_DOUBLE
        tensor_shape {
          dim {
            size: 31250
          }
          dim {
            size: 2
          }
        }
        tensor_content: "tE)!XU\305?\000\000\000\000\000\000\260?tE)!XU\305?\000\000\000\000\000\000\260?tE)!XU\305?\000\000\000\000\000\000\260?tE)!XU\305?\000\000\000\000\000\000\260?tE)!XU\305?\000\000\000\000\000\000\260?tE)!XU\305?\000\000\000\000\000\000\260?tE)!XU\305?\000\000\000\000\000\000\260?tE)!XU\305?\000\000\000\000\000\000\260?tE)!XU\305?\000\000\000\000\000\000\260?tE)!XU\305?\000\000\000\000\000\000\260?tE)!XU\305?\000\000\000\000\000\000\260?tE)!XU\305?\000\000\000\000\000\000\260?tE)!XU\305?\000\000\000\000\000\000\260?tE)!XU\305?\000\000\000\000\000\000\260?tE)!XU\305?\000\000\000\000\000\000\260?tE)!XU\305?\000\000\000\000\000\000\260?tE)!XU\305?\000\000\000\000\000\000\260?tE)!XU\305?\000\000\000\000\000\000\260?tE)!XU\305?\000\000\000\000\000\000\260?tE)!XU\305?\000\000\000\000\000\000\260?tE)!XU\305?\000\000\000\000\000\000\260?tE)!XU\305?\000\000\000\000\000\000\260?tE)!XU\305?\000\000\000\000\000\000\260?tE)!XU\305?\000\000\000\000\000\000\260?tE)!XU\305?\000\000\000\000\000\000\260?tE)!XU\305?\000\000\000\000\000\000\260?tE)!XU\305?\000\000\000\000\000\000\260?tE)!XU\305?\000\000\000\000\000\000\260?tE)!XU\305?\000\000\000\000\000\000\260?tE)!XU\305?\000\000\000\000\000\000\260?tE)!XU\305?\000\000\000\000\000\000\260?tE)!XU\305?\000\000\000\000\000\000\260?tE)!XU\305?\000\000\000\000\000\000\260?tE)!XU\305?\000\000\000\000\000\000\260?tE)!XU\305?\000\000\000\000\000\000\260?tE)!XU\305?\000\000\000\000\000\000\260?tE)!XU\305?\000\000\000\000\000\000\260?tE)!XU\305?\000\000\000\000\000\000\260?tE)!XU\305?\000\000\000\000\000\000\260?tE)!XU\305?\000\000\000\000\000\000\260?tE)!XU\305?\000\000\000\000\000\000\260?tE)!XU\305?\000\000\000\000\000\000\260?tE)!XU\305?\000\000\000\000\000\000\260?tE)!XU\305?\000\000\000\000\000\000\260?tE)!XU\305?\000\000\000\000\000\000\260?tE)!XU\305?\000\000\000\000\000\000\260?tE)!XU\305?\000\000\000\000\000\000\260?tE)!XU\305?\000\000\000\000\000\000\260?tE)!XU\305?\000\000\000\000\000\000\260?tE)!XU\305?\000\000\000\000\000\000\260?]QJ\010VU\345?\264W\037\017}w\267?]QJ\010VU\345?\264W\037\017}w\267?]QJ\010VU\345?\264W\037\017}w\267?]QJ\010VU\345?\264W\037\017}w\267?]QJ\010VU\345?\264W\037\017}w\267?]QJ\010VU\345?\264W\037\017}w\267?]QJ\010VU\345?\264W\037\017}w\267?]QJ\010VU\345?\264W\037\017}w\267?]QJ\010VU\345?\264W\037\017}w\267?]QJ\010VU\345?\264W\037\017}w\267?]QJ\010VU\345?\264W\037\017}w\267?]QJ\010VU\345?\264W\037\017}w\267?]QJ\010VU\345?\264W\037\017}w\267?]QJ\010VU\345?\264W\037\017}w\267?]QJ\010VU\345?\264W\037\017}w\267?]QJ\010VU\345?\264W\037\017}w\267?]QJ\010VU\345?\264W\037\017}w\267?]QJ\010VU\345?\264W\037\017}w\267?]QJ\010VU\345?\264W\037\017}w\267?]QJ\010VU\345?\264W\037\017}w\267?]QJ\010VU\345?\264W\037\017}w\267?]QJ\010VU\345?\264W\037\017}w\267?]QJ\010VU\345?\264W\037\017}w\267?]QJ\010VU\345?\264W\037\017}w\267?]QJ\010VU\345?\264W\037\017}w\267?]QJ\010VU\345?\264W\037\017}w\267?]QJ\010VU\345?\264W\037\017}w\267?]QJ\010VU\345?\264W\037\017}w\267?]QJ\010VU\345?\264W\037\017}w\267?]QJ\010VU\345?\264W\037\017}w\267?]QJ\010VU\345?\264W\037\017}w\267?]QJ\010VU\345?\264W\037\017}w\267?]QJ\010VU\345?\264W\037\017}w\267?]QJ\010VU\345?\264W\037\017}w\267?]QJ\010VU\345?\264W\037\017}w\267?]QJ\010VU\345?\264W\037\017}w\267?]QJ\010VU\345?\264W\037\017}w\267?]QJ\010VU\345?\264W\037\017}w\267?]QJ\010VU\345?\264W\037\017}w\267?]QJ\010VU\345?\264W\037\017}w\267?]QJ\010VU\345?\264W\037\017}w\267?]QJ\010VU\345?\264W\037\017}w\267?]QJ\010VU\345?\264W\037\017}w\267?]QJ\010VU\345?\264W\037\017}w\267?]QJ\010VU\345?\264W\037\017}w\267?]QJ\010VU\345?\264W\037\017}w\267?]QJ\010VU\345?\264W\037\017}w\267?]QJ\010VU\345?\264W\037\017}w\267?]QJ\010VU\345?\264W\037\017}w\267?]QJ\010VU\345?\264W\037\017}w\267?\251k\355}\252\252\002\300\005\333\210\'\273\231\251?\251k\355}\252\252\002\300\005\333\210\'\273\231\251?\251k\355}\252\252\002\300\005\333\210\'\273\231\251?\251k\355}\252\252\002\300\005\333\210\'\273\231\251?\251k\355}\252\252\002\300\005\333\210\'\273\231\251?\251k\355}\252\252\002\300\005\333\210\'\273\231\251?\251k\355}\252\252\002\300\005\333\210\'\273\231\251?\251k\355}\252\252\002\300\005\333\210\'\273\231\251?\251k\355}\252\252\002\300\005\333\210\'\273\231\251?\251k\355}\252\252\002\300\005\333\210\'\273\231\251?\251k\355}\252\252\002\300\005\333\210\'\273\231\251?\251k\355}\252\252\002\300\005\333\210\'\273\231\251?\251k\355}\252\252\002\300\005\333\210\'\273\231\251?\251k\355}\252\252\002\300\005\333\210\'\273\231\251?\251k\355}\252\252\002\300\005\333\210\'\273\231\251?\251k\355}\252\252\002\300\005\333\210\'\273\231\251?\251k\355}\252\252\002\300\005\333\210\'\273\231\251?\251k\355}\252\252\002\300\005\333\210\'\273\231\251?\251k\355}\252\252\002\300\005\333\210\'\273\231\251?\251k\355}\252\252\002\300\005\333\210\'\273\231\251?\251k\355}\252\252\002\300\005\333\210\'\273\231\251?\251k\355}\252\252\002\300\005\333\210\'\273\231\251?\251k\355}\252\252\002\300\005\333\210\'\273\231\251?\251k\355}\252\252\002\300\005\333\210\'\273\231\251?\251k\355}\252\252\002\300\005\333\210\'\273\231\251?\251k\355}\252\252\002\300\005\333\210\'\273\231\251?\251k\355}\252\252\002\300\005\333\210\'\273\231\251?\251k\355}\252\252\002\300\005\333\210\'\273\231\251?\251k\355}\252\252\002\300\005\333\210\'\273\231\251?\251k\355}\252\252\002\300\005\333\210\'\273\231\251?\251k\355}\252\252\002\300\005\333\210\'\273\231\251?\251k\355}\252\252\002\300\005\333\210\'\273\231\251?\251k\355}\252\252\002\300\005\333\210\'\273\231\251?\251k\355}\252\252\002\300\005\333\210\'\273\231\251?\251k\355}\252\252\002\300\005\333\210\'\273\231\251?\251k\355}\252\252\002\300\005\333\210\'\273\231\251?\251k\355}\252\252\002\300\005\333\210\'\273\231\251?\251k\355}\252\252\002\300\005\333\210\'\273\231\251?\251k\355}\252\252\002\300\005\333\210\'\273\231\251?\251k\355}\252\252\002\300\005\333\210\'\273\231\251?\251k\355}\252\252\002\300\005\333\210\'\273\231\251?\251k\355}\252\252\002\300\005\333\210\'\273\231\251?\251k\355}\252\252\002\300\005\333\210\'\273\231\251?\251k\355}\252\252\002\300\005\333\210\'\273\231\251?\251k\355}\252\252\002\300\005\333\210\'\273\231\251?\251k\355}\252\252\002\300\005\333\210\'\273\231\251?\251k\355}\252\252\002\300\005\333\210\'\273\231\251?\251k\355}\252\252\002\300\005\333\210\'\273\231\251?\251k\355}\252\252\002\300\005\333\210\'\273\231\251?\251k\355}\252\252\002\300\005\333\210\'\273\231\251?\000\000\000\000\000\000\360\277\264W\037\017}w\267?\000\000\000\000\000\000\360\277\264W\037\017}w\267?\000\000\000\000\000\000\360\277\264W\037\017}w\267?\000\000\000\000\000\000\360\277\264W\037\017}w\267?\000\000\000\000\000\000\360\277\264W\037\017}w\267?\000\000\000\000\000\000\360\277\264W\037\017}w\267?\000\000\000\000\000\000\360\277\264W\037\017}w\267?\000\000\000\000\000\000\360\277\264W\037\017}w\267?\000\000\000\000\000\000\360\277\264W\037\017}w\267?\000\000\000\000\000\000\360\277\264W\037\017}w\267?\000\000\000\000\000\000\360\277\264W\037\017}w\267?\000\000\000\000\000\000\360\277\264W\037\017}w\267?\000\000\000\000\000\000\360\277\264W\037\017}w\267?\000\000\000\000\000\000\360\277\264W\037\017}w\267?\000\000\000\000\000\000\360\277\264W\037\017}w\267?\000\000\000\000\000\000\360\277\264W\037\017}w\267?\000\000\000\000\000\000\360\277\264W\037\017}w\267?\000\000\000\000\000\000\360\277\264W\037\017}w\267?\000\000\000\000\000\000\360\277\264W\037\017}w\267?\000\000\000\000\000\000\360\277\264W\037\017}w\267?\000\000\000\000\000\000\360\277\264W\037\017}w\267?\000\000\000\000\000\000\360\277\264W\037\017}w\267?\000\000\000\000\000\000\360\277\264W\037\017}w\267?\000\000\000\000\000\000\360\277\264W\037\017}w\267?\000\000\000\000\000\000\360\277\264W\037\017}w\267?\000\000\000\000\000\000\360\277\264W\037\017}w\267?\000\000\000\000\000\000\360\277\264W\037\017}w\267?\000\000\000\000\000\000\360\277\264W\037\017}w\267?\000\000\000\000\000\000\360\277\264W\037\017}w\267?\000\000\000\000\000\000\360\277\264W\037\017}w\267?\000\000\000\000\000\000\360\277\264W\037\017}w\267?\000\000\000\000\000\000\360\277\264W\037\017}w\267?\000\000\000\000\000\000\360\277\264W\037\017}w\267?\000\000\000\000\000\000\360\277\264W\037\017}w\267?\000\000\000\000\000\000\360\277\264W\037\017}w\267?\000\000\000\000\000\000\360\277\264W\037\017}w\267?\000\000\000\000\000\000\360\277\264W\037\017}w\267?\000\000\000\000\000\000\360\277\264W\037\017}w\267?\000\000\000\000\000\000\360\277\264W\037\017}w\267?\000\000\000\000\000\000\360\277\264W\037\017}w\267?\000\000\000\000\000\000\360\277\264W\037\017}w\267?\000\000\000\000\000\000\360\277\264W\037\017}w\267?\000\000\000\000\000\000\360\277\264W\037\017}w\267?\000\000\000\000\000\000\360\277\264W\037\017}w\267?\000\000\000\000\000\000\360\277\264W\037\017}w\267?\000\000\000\000\000\000\360\277\264W\037\017}w\267?\000\000\000\000\000\000\360\277\264W\037\017}w\267?\000\000\000\000\000\000\360\277\264W\037\017}w\267?\000\000\000\000\000\000\360\277\264W\037\017}w\267?\000\000\000\000\000\000\360\277\264W\037\017}w\267?\251k\355}\252\252\002\300\237t\"\301T3\243?\251k\355}\252\252\002\300\237t\"\301T3\243?\251k\355}\252\252\002\300\237t\"\301T3\243?\251k\355}\252\252\002\300\237t\"\301T3\243?\251k\355}\252\252\002\300\237t\"\301T3\243?\251k\355}\252\252\002\300\237t\"\301T3\243?\251k\355}\252\252\002\300\237t\"\301T3\243?\251k\355}\252\252\002\300\237t\"\301T3\243?\251k\355}\252\252\002\300\237t\"\301T3\243?\251k\355}\252\252\002\300\237t\"\301T3\243?\251k\355}\252\252\002\300\237t\"\301T3\243?\251k\355}\252\252\002\300\237t\"\301T3\243?\251k\355}\252\252\002\300\237t\"\301T3\243?\251k\355}\252\252\002\300\237t\"\301T3\243?\251k\355}\252\252\002\300\237t\"\301T3\243?\251k\355}\252\252\002\300\237t\"\301T3\243?\251k\355}\252\252\002\300\237t\"\301T3\243?\251k\355}\252\252\002\300\237t\"\301T3\243?\251k\355}\252\252\002\300\237t\"\301T3\243?\251k\355}\252\252\002\300\237t\"\301T3\243?\251k\355}\252\252\002\300\237t\"\301T3\243?\251k\355}\252\252\002\300\237t\"\301T3\243?\251k\355}\252\252\002\300\237t\"\301T3\243?\251k\355}\252\252\002\300\237t\"\301T3\243?\251k\355}\252\252\002\300\237t\"\301T3\243?\251k\355}\252\252\002\300\237t\"\301T3\243?\251k\355}\252\252\002\300\237t\"\301T3\243?\251k\355}\252\252\002\300\237t\"\301T3\243?\251k\355}\252\252\002\300\237t\"\301T3\243?\251k\355}\252\252\002\300\237t\"\301T3\243?\251k\355}\252\252\002\300\237t\"\301T3\243?\251k\355}\252\252\002\300\237t\"\301T3\243?\251k\355}\252\252\002\300\237t\"\301T3\243?\251k\355}\252\252\002\300\237t\"\301T3\243?\251k\355}\252\252\002\300\237t\"\301T3\243?\251k\355}\252\252\002\300\237t\"\301T3\243?\251k\355}\252\252\002\300\237t\"\301T3\243?\251k\355}\252\252\002\300\237t\"\301T3\243?\251k\355}\252\252\002\300\237t\"\301T3\243?\251k\355}\252\252\002\300\237t\"\301T3\243?\251k\355}\252\252\002\300\237t\"\301T3\243?\251k\355}\252\252\002\300\237t\"\301T3\243?\251k\355}\252\252\002\300\237t\"\301T3\243?\251k\355}\252\252\002\300\237t\"\301T3\243?\251k\355}\252\252\002\300\237t\"\301T3\243?\251k\355}\252\252\002\300\237t\"\301T3\243?\251k\355}\252\252\002\300\237t\"\301T3\243?\251k\355}\252\252\002\300\237t\"\301T3\243?\251k\355}\252\252\002\300\237t\"\301T3\243?\251k\355}\252\252\002\300\237t\"\301T3\243?\243\256\265\367\251\252\352\277\233\342qQ-\"\262?\243\256\265\367\251\252\352\277\233\342qQ-\"\262?\243\256\265\367\251\252\352\277\233\342qQ-\"\262?\243\256\265\367\251\252\352\277\233\342qQ-\"\262?\243\256\265\367\251\252\352\277\233\342qQ-\"\262?\243\256\265\367\251\252\352\277\233\342qQ-\"\262?\243\256\265\367\251\252\352\277\233\342qQ-\"\262?\243\256\265\367\251\252\352\277\233\342qQ-\"\262?\243\256\265\367\251\252\352\277\233\342qQ-\"\262?\243\256\265\367\251\252\352\277\233\342qQ-\"\262?\243\256\265\367\251\252\352\277\233\342qQ-\"\262?\243\256\265\367\251\252\352\277\233\342qQ-\"\262?\243\256\265\367\251\252\352\277\233\342qQ-\"\262?\243\256\265\367\251\252\352\277\233\342qQ-\"\262?\243\256\265\367\251\252\352\277\233\342qQ-\"\262?\243\256\265\367\251\252\352\277\233\342qQ-\"\262?\243\256\265\367\251\252\352\277\233\342qQ-\"\262?\243\256\265\367\251\252\352\277\233\342qQ-\"\262?\243\256\265\367\251\252\352\277\233\342qQ-\"\262?\243\256\265\367\251\252\352\277\233\342qQ-\"\262?\243\256\265\367\251\252\352\277\233\342qQ-\"\262?\243\256\265\367\251\252\352\277\233\342qQ-\"\262?\243\256\265\367\251\252\352\277\233\342qQ-\"\262?\243\256\265\367\251\252\352\277\233\342qQ-\"\262?\243\256\265\367\251\252\352\277\233\342qQ-\"\262?\243\256\265\367\251\252\352\277\233\342qQ-\"\262?\243\256\265\367\251\252\352\277\233\342qQ-\"\262?\243\256\265\367\251\252\352\277\233\342qQ-\"\262?\243\256\265\367\251\252\352\277\233\342qQ-\"\262?\243\256\265\367\251\252\352\277\233\342qQ-\"\262?\243\256\265\367\251\252\352\277\233\342qQ-\"\262?\243\256\265\367\251\252\352\277\233\342qQ-\"\262?\243\256\265\367\251\252\352\277\233\342qQ-\"\262?\243\256\265\367\251\252\352\277\233\342qQ-\"\262?\243\256\265\367\251\252\352\277\233\342qQ-\"\262?\243\256\265\367\251\252\352\277\233\342qQ-\"\262?\243\256\265\367\251\252\352\277\233\342qQ-\"\262?\243\256\265\367\251\252\352\277\233\342qQ-\"\262?\243\256\265\367\251\252\352\277\233\342qQ-\"\262?\243\256\265\367\251\252\352\277\233\342qQ-\"\262?\243\256\265\367\251\252\352\277\233\342qQ-\"\262?\243\256\265\367\251\252\352\277\233\342qQ-\"\262?\243\256\265\367\251\252\352\277\233\342qQ-\"\262?\243\256\265\367\251\252\352\277\233\342qQ-\"\262?\243\256\265\367\251\252\352\277\233\342qQ-\"\262?\243\256\265\367\251\252\352\277\233\342qQ-\"\262?\243\256\265\367\251\252\352\277\233\342qQ-\"\262?\243\256\265\367\251\252\352\277\233\342qQ-\"\262?\243\256\265\367\251\252\352\277\233\342qQ-\"\262?\243\256\265\367\251\252\352\277\233\342qQ-\"\262?\251k\355}\252\252\006\300\005\333\210\'\273\231\251?\251k\355}\252\252\006\300\005\333\210\'\273\231\251?\251k\355}\252\252\006\300\005\333\210\'\273\231\251?\251k\355}\252\252\006\300\005\333\210\'\273\231\251?\251k\355}\252\252\006\300\005\333\210\'\273\231\251?\251k\355}\252\252\006\300\005\333\210\'\273\231\251?\251k\355}\252\252\006\300\005\333\210\'\273\231\251?\251k\355}\252\252\006\300\005\333\210\'\273\231\251?\251k\355}\252\252\006\300\005\333\210\'\273\231\251?\251k\355}\252\252\006\300\005\333\210\'\273\231\251?\251k\355}\252\252\006\300\005\333\210\'\273\231\251?\251k\355}\252\252\006\300\005\333\210\'\273\231\251?\251k\355}\252\252\006\300\005\333\210\'\273\231\251?\251k\355}\252\252\006\300\005\333\210\'\273\231\251?\251k\355}\252\252\006\300\005\333\210\'\273\231\251?\251k\355}\252\252\006\300\005\333\210\'\273\231\251?\251k\355}\252\252\006\300\005\333\210\'\273\231\251?\251k\355}\252\252\006\300\005\333\210\'\273\231\251?\251k\355}\252\252\006\300\005\333\210\'\273\231\251?\251k\355}\252\252\006\300\005\333\210\'\273\231\251?\251k\355}\252\252\006\300\005\333\210\'\273\231\251?\251k\355}\252\252\006\300\005\333\210\'\273\231\251?\251k\355}\252\252\006\300\005\333\210\'\273\231\251?\251k\355}\252\252\006\300\005\333\210\'\273\231\251?\251k\355}\252\252\006\300\005\333\210\'\273\231\251?\251k\355}\252\252\006\300\005\333\210\'\273\231\251?\251k\355}\252\252\006\300\005\333\210\'\273\231\251?\251k\355}\252\252\006\300\005\333\210\'\273\231\251?\251k\355}\252\252\006\300\005\333\210\'\273\231\251?\251k\355}\252\252\006\300\005\333\210\'\273\231\251?\251k\355}\252\252\006\300\005\333\210\'\273\231\251?\251k\355}\252\252\006\300\005\333\210\'\273\231\251?\251k\355}\252\252\006\300\005\333\210\'\273\231\251?\251k\355}\252\252\006\300\005\333\210\'\273\231\251?\251k\355}\252\252\006\300\005\333\210\'\273\231\251?\251k\355}\252\252\006\300\005\333\210\'\273\231\251?\251k\355}\252\252\006\300\005\333\210\'\273\231\251?\251k\355}\252\252\006\300\005\333\210\'\273\231\251?\251k\355}\252\252\006\300\005\333\210\'\273\231\251?\251k\355}\252\252\006\300\005\333\210\'\273\231\251?\251k\355}\252\252\006\300\005\333\210\'\273\231\251?\251k\355}\252\252\006\300\005\333\210\'\273\231\251?\251k\355}\252\252\006\300\005\333\210\'\273\231\251?\251k\355}\252\252\006\300\005\333\210\'\273\231\251?\251k\355}\252\252\006\300\005\333\210\'\273\231\251?\251k\355}\252\252\006\300\005\333\210\'\273\231\251?\251k\355}\252\252\006\300\005\333\210\'\273\231\251?\251k\355}\252\252\006\300\005\333\210\'\273\231\251?\251k\355}\252\252\006\300\005\333\210\'\273\231\251?\251k\355}\252\252\006\300\005\333\210\'\273\231\251?R\327\332\373TU\375\277L\250\340\360\202\210\270?R\327\332\373TU\375\277L\250\340\360\202\210\270?R\327\332\373TU\375\277L\250\340\360\202\210\270?R\327\332\373TU\375\277L\250\340\360\202\210\270?R\327\332\373TU\375\277L\250\340\360\202\210\270?R\327\332\373TU\375\277L\250\340\360\202\210\270?R\327\332\373TU\375\277L\250\340\360\202\210\270?R\327\332\373TU\375\277L\250\340\360\202\210\270?R\327\332\373TU\375\277L\250\340\360\202\210\270?R\327\332\373TU\375\277L\250\340\360\202\210\270?R\327\332\373TU\375\277L\250\340\360\202\210\270?R\327\332\373TU\375\277L\250\340\360\202\210\270?R\327\332\373TU\375\277L\250\340\360\202\210\270?R\327\332\373TU\375\277L\250\340\360\202\210\270?R\327\332\373TU\375\277L\250\340\360\202\210\270?R\327\332\373TU\375\277L\250\340\360\202\210\270?R\327\332\373TU\375\277L\250\340\360\202\210\270?R\327\332\373TU\375\277L\250\340\360\202\210\270?R\327\332\373TU\375\277L\250\340\360\202\210\270?R\327\332\373TU\375\277L\250\340\360\202\210\270?R\327\332\373TU\375\277L\250\340\360\202\210\270?R\327\332\373TU\375\277L\250\340\360\202\210\270?R\327\332\373TU\375\277L\250\340\360\202\210\270?R\327\332\373TU\375\277L\250\340\360\202\210\270?R\327\332\373TU\375\277L\250\340\360\202\210\270?R\327\332\373TU\375\277L\250\340\360\202\210\270?R\327\332\373TU\375\277L\250\340\360\202\210\270?R\327\332\373TU\375\277L\250\340\360\202\210\270?R\327\332\373TU\375\277L\250\340\360\202\210\270?R\327\332\373TU\375\277L\250\340\360\202\210\270?R\327\332\373TU\375\277L\250\340\360\202\210\270?R\327\332\373TU\375\277L\250\340\360\202\210\270?R\327\332\373TU\375\277L\250\340\360\202\210\270?R\327\332\373TU\375\277L\250\340\360\202\210\270?R\327\332\373TU\375\277L\250\340\360\202\210\270?R\327\332\373TU\375\277L\250\340\360\202\210\270?R\327\332\373TU\375\277L\250\340\360\202\210\270?R\327\332\373TU\375\277L\250\340\360\202\210\270?R\327\332\373TU\375\277L\250\340\360\202\210\270?R\327\332\373TU\375\277L\250\340\360\202\210\270?R\327\332\373TU\375\277L\250\340\360\202\210\270?R\327\332\373TU\375\277L\250\340\360\202\210\270?R\327\332\373TU\375\277L\250\340\360\202\210\270?R\327\332\373TU\375\277L\250\340\360\202\210\270?R\327\332\373TU\375\277L\250\340\360\202\210\270?R\327\332\373TU\375\277L\250\340\360\202\210\270?R\327\332\373TU\375\277L\250\340\360\202\210\270?R\327\332\373TU\375\277L\250\340\360\202\210\270?R\327\332\373TU\375\277L\250\340\360\202\210\270?R\327\332\373TU\375\277L\250\340\360\202\210\270?\243\256\265\367\251\252\352\277\004\222\260o\'\021\241?\243\256\265\367\251\252\352\277\004\222\260o\'\021\241?\243\256\265\367\251\252\352\277\004\222\260o\'\021\241?\243\256\265\367\251\252\352\277\004\222\260o\'\021\241?\243\256\265\367\251\252\352\277\004\222\260o\'\021\241?\243\256\265\367\251\252\352\277\004\222\260o\'\021\241?\243\256\265\367\251\252\352\277\004\222\260o\'\021\241?\243\256\265\367\251\252\352\277\004\222\260o\'\021\241?\243\256\265\367\251\252\352\277\004\222\260o\'\021\241?\243\256\265\367\251\252\352\277\004\222\260o\'\021\241?\243\256\265\367\251\252\352\277\004\222\260o\'\021\241?\243\256\265\367\251\252\352\277\004\222\260o\'\021\241?\243\256\265\367\251\252\352\277\004\222\260o\'\021\241?\243\256\265\367\251\252\352\277\004\222\260o\'\021\241?\243\256\265\367\251\252\352\277\004\222\260o\'\021\241?\243\256\265\367\251\252\352\277\004\222\260o\'\021\241?\243\256\265\367\251\252\352\277\004\222\260o\'\021\241?\243\256\265\367\251\252\352\277\004\222\260o\'\021\241?\243\256\265\367\251\252\352\277\004\222\260o\'\021\241?\243\256\265\367\251\252\352\277\004\222\260o\'\021\241?\243\256\265\367\251\252\352\277\004\222\260o\'\021\241?\243\256\265\367\251\252\352\277\004\222\260o\'\021\241?\243\256\265\367\251\252\352\277\004\222\260o\'\021\241?\243\256\265\367\251\252\352\277\004\222\260o\'\021\241?\243\256\265\367\251\252\352\277\004\222\260o\'\021\241?\243\256\265\367\251\252\352\277\004\222\260o\'\021\241?\243\256\265\367\251\252\352\277\004\222\260o\'\021\241?\243\256\265\367\251\252\352\277\004\222\260o\'\021\241?\243\256\265\367\251\252\352\277\004\222\260o\'\021\241?\243\256\265\367\251\252\352\277\004\222\260o\'\021\241?\243\256\265\367\251\252\352\277\004\222\260o\'\021\241?\243\256\265\367\251\252\352\277\004\222\260o\'\021\241?\243\256\265\367\251\252\352\277\004\222\260o\'\021\241?\243\256\265\367\251\252\352\277\004\222\260o\'\021\241?\243\256\265\367\251\252\352\277\004\222\260o\'\021\241?\243\256\265\367\251\252\352\277\004\222\260o\'\021\241?\243\256\265\367\251\252\352\277\004\222\260o\'\021\241?\243\256\265\367\251\252\352\277\004\222\260o\'\021\241?\243\256\265\367\251\252\352\277\004\222\260o\'\021\241?\243\256\265\367\251\252\352\277\004\222\260o\'\021\241?\243\256\265\367\251\252\352\277\004\222\260o\'\021\241?\243\256\265\367\251\252\352\277\004\222\260o\'\021\241?\243\256\265\367\251\252\352\277\004\222\260o\'\021\241?\243\256\265\367\251\252\352\277\004\222\260o\'\021\241?\243\256\265\367\251\252\352\277\004\222\260o\'\021\241?\243\256\265\367\251\252\352\277\004\222\260o\'\021\241?\243\256\265\367\251\252\352\277\004\222\260o\'\021\241?\243\256\265\367\251\252\352\277\004\222\260o\'\021\241?\243\256\265\367\251\252\352\277\004\222\260o\'\021\241?\243\256\265\367\251\252\352\277\004\222\260o\'\021\241?\251k\355}\252\252\002\300j\370\026\326\215w\247?\251k\355}\252\252\002\300j\370\026\326\215w\247?\251k\355}\252\252\002\300j\370\026\326\215w\247?\251k\355}\252\252\002\300j\370\026\326\215w\247?\251k\355}\252\252\002\300j\370\026\326\215w\247?\251k\355}\252\252\002\300j\370\026\326\215w\247?\251k\355}\252\252\002\300j\370\026\326\215w\247?\251k\355}\252\252\002\300j\370\026\326\215w\247?\251k\355}\252\252\002\300j\370\026\326\215w\247?\251k\355}\252\252\002\300j\370\026\326\215w\247?\251k\355}\252\252\002\300j\370\026\326\215w\247?\251k\355}\252\252\002\300j\370\026\326\215w\247?\251k\355}\252\252\002\300j\370\026\326\215w\247?\251k\355}\252\252\002\300j\370\026\326\215w\247?\251k\355}\252\252\002\300j\370\026\326\215w\247?\251k\355}\252\252\002\300j\370\026\326\215w\247?\251k\355}\252\252\002\300j\370\026\326\215w\247?\251k\355}\252\252\002\300j\370\026\326\215w\247?\251k\355}\252\252\002\300j\370\026\326\215w\247?\251k\355}\252\252\002\300j\370\026\326\215w\247?\251k\355}\252\252\002\300j\370\026\326\215w\247?\251k\355}\252\252\002\300j\370\026\326\215w\247?\251k\355}\252\252\002\300j\370\026\326\215w\247?\251k\355}\252\252\002\300j\370\026\326\215w\247?\251k\355}\252\252\002\300j\370\026\326\215w\247?\251k\355}\252\252\002\300j\370\026\326\215w\247?\251k\355}\252\252\002\300j\370\026\326\215w\247?\251k\355}\252\252\002\300j\370\026\326\215w\247?\251k\355}\252\252\002\300j\370\026\326\215w\247?\251k\355}\252\252\002\300j\370\026\326\215w\247?\251k\355}\252\252\002\300j\370\026\326\215w\247?\251k\355}\252\252\002\300j\370\026\326\215w\247?\251k\355}\252\252\002\300j\370\026\326\215w\247?\251k\355}\252\252\002\300j\370\026\326\215w\247?\251k\355}\252\252\002\300j\370\026\326\215w\247?\251k\355}\252\252\002\300j\370\026\326\215w\247?\251k\355}\252\252\002\300j\370\026\326\215w\247?\251k\355}\252\252\002\300j\370\026\326\215w\247?\251k\355}\252\252\002\300j\370\026\326\215w\247?\251k\355}\252\252\002\300j\370\026\326\215w\247?\251k\355}\252\252\002\300j\370\026\326\215w\247?\251k\355}\252\252\002\300j\370\026\326\215w\247?\251k\355}\252\252\002\300j\370\026\326\215w\247?\251k\355}\252\252\002\300j\370\026\326\215w\247?\251k\355}\252\252\002\300j\370\026\326\215w\247?\251k\355}\252\252\002\300j\370\026\326\215w\247?\251k\355}\252\252\002\300j\370\026\326\215w\247?\251k\355}\252\252\002\300j\370\026\326\215w\247?\251k\355}\252\252\002\300j\370\026\326\215w\247?\251k\355}\252\252\002\300j\370\026\326\215w\247?]QJ\010VU\345\277\004\222\260o\'\021\241?]QJ\010VU\345\277\004\222\260o\'\021\241?]QJ\010VU\345\277\004\222\260o\'\021\241?]QJ\010VU\345\277\004\222\260o\'\021\241?]QJ\010VU\345\277\004\222\260o\'\021\241?]QJ\010VU\345\277\004\222\260o\'\021\241?]QJ\010VU\345\277\004\222\260o\'\021\241?]QJ\010VU\345\277\004\222\260o\'\021\241?]QJ\010VU\345\277\004\222\260o\'\021\241?]QJ\010VU\345\277\004\222\260o\'\021\241?]QJ\010VU\345\277\004\222\260o\'\021\241?]QJ\010VU\345\277\004\222\260o\'\021\241?]QJ\010VU\345\277\004\222\260o\'\021\241?]QJ\010VU\345\277\004\222\260o\'\021\241?]QJ\010VU\345\277\004\222\260o\'\021\241?]QJ\010VU\345\277\004\222\260o\'\021\241?]QJ\010VU\345\277\004\222\260o\'\021\241?]QJ\010VU\345\277\004\222\260o\'\021\241?]QJ\010VU\345\277\004\222\260o\'\021\241?]QJ\010VU\345\277\004\222\260o\'\021\241?]QJ\010VU\345\277\004\222\260o\'\021\241?]QJ\010VU\345\277\004\222\260o\'\021\241?]QJ\010VU\345\277\004\222\260o\'\021\241?]QJ\010VU\345\277\004\222\260o\'\021\241?]QJ\010VU\345\277\004\222\260o\'\021\241?]QJ\010VU\345\277\004\222\260o\'\021\241?]QJ\010VU\345\277\004\222\260o\'\021\241?]QJ\010VU\345\277\004\222\260o\'\021\241?]QJ\010VU\345\277\004\222\260o\'\021\241?]QJ\010VU\345\277\004\222\260o\'\021\241?]QJ\010VU\345\277\004\222\260o\'\021\241?]QJ\010VU\345\277\004\222\260o\'\021\241?]QJ\010VU\345\277\004\222\260o\'\021\241?]QJ\010VU\345\277\004\222\260o\'\021\241?]QJ\010VU\345\277\004\222\260o\'\021\241?]QJ\010VU\345\277\004\222\260o\'\021\241?]QJ\010VU\345\277\004\222\260o\'\021\241?]QJ\010VU\345\277\004\222\260o\'\021\241?]QJ\010VU\345\277\004\222\260o\'\021\241?]QJ\010VU\345\277\004\222\260o\'\021\241?]QJ\010VU\345\277\004\222\260o\'\021\241?]QJ\010VU\345\277\004\222\260o\'\021\241?]QJ\010VU\345\277\004\222\260o\'\021\241?]QJ\010VU\345\277\004\222\260o\'\021\241?]QJ\010VU\345\277\004\222\260o\'\021\241?]QJ\010VU\345\277\004\222\260o\'\021\241?]QJ\010VU\345\277\004\222\260o\'\021\241?]QJ\010VU\345\277\004\222\260o\'\021\241?]QJ\010VU\345\277\004\222\260o\'\021\241?]QJ\010VU\345\277\004\222\260o\'\021\241?]QJ\010VU\345?\005\333\210\'\273\231\251?]QJ\010VU\345?\005\333\210\'\273\231\251?]QJ\010VU\345?\005\333\210\'\273\231\251?]QJ\010VU\345?\005\333\210\'\273\231\251?]QJ\010VU\345?\005\333\210\'\273\231\251?]QJ\010VU\345?\005\333\210\'\273\231\251?]QJ\010VU\345?\005\333\210\'\273\231\251?]QJ\010VU\345?\005\333\210\'\273\231\251?]QJ\010VU\345?\005\333\210\'\273\231\251?]QJ\010VU\345?\005\333\210\'\273\231\251?]QJ\010VU\345?\005\333\210\'\273\231\251?]QJ\010VU\345?\005\333\210\'\273\231\251?]QJ\010VU\345?\005\333\210\'\273\231\251?]QJ\010VU\345?\005\333\210\'\273\231\251?]QJ\010VU\345?\005\333\210\'\273\231\251?]QJ\010VU\345?\005\333\210\'\273\231\251?]QJ\010VU\345?\005\333\210\'\273\231\251?]QJ\010VU\345?\005\333\210\'\273\231\251?]QJ\010VU\345?\005\333\210\'\273\231\251?]QJ\010VU\345?\005\333\210\'\273\231\251?]QJ\010VU\345?\005\333\210\'\273\231\251?]QJ\010VU\345?\005\333\210\'\273\231\251?]QJ\010VU\345?\005\333\210\'\273\231\251?]QJ\010VU\345?\005\333\210\'\273\231\251?]QJ\010VU\345?\005\333\210\'\273\231\251?]QJ\010VU\345?\005\333\210\'\273\231\251?]QJ\010VU\345?\005\333\210\'\273\231\251?]QJ\010VU\345?\005\333\210\'\273\231\251?]QJ\010VU\345?\005\333\210\'\273\231\251?]QJ\010VU\345?\005\333\210\'\273\231\251?]QJ\010VU\345?\005\333\210\'\273\231\251?]QJ\010VU\345?\005\333\210\'\273\231\251?]QJ\010VU\345?\005\333\210\'\273\231\251?]QJ\010VU\345?\005\333\210\'\273\231\251?]QJ\010VU\345?\005\333\210\'\273\231\251?]QJ\010VU\345?\005\333\210\'\273\231\251?]QJ\010VU\345?\005\333\210\'\273\231\251?]QJ\010VU\345?\005\333\210\'\273\231\251?]QJ\010VU\345?\005\333\210\'\273\231\251?]QJ\010VU\345?\005\333\210\'\273\231\251?]QJ\010VU\345?\005\333\210\'\273\231\251?]QJ\010VU\345?\005\333\210\'\273\231\251?]QJ\010VU\345?\005\333\210\'\273\231\251?]QJ\010VU\345?\005\333\210\'\273\231\251?]QJ\010VU\345?\005\333\210\'\273\231\251?]QJ\010VU\345?\005\333\210\'\273\231\251?]QJ\010VU\345?\005\333\210\'\273\231\251?]QJ\010VU\345?\005\333\210\'\273\231\251?]QJ\010VU\345?\005\333\210\'\273\231\251?]QJ\010VU\345?\005\333\210\'\273\231\251?F]k\357SU\325\277\333\024\217\213j\021\221?F]k\357SU\325\277\333\024\217\213j\021\221?F]k\357SU\325\277\333\024\217\213j\021\221?F]k\357SU\325\277\333\024\217\213j\021\221?F]k\357SU\325\277\333\024\217\213j\021\221?F]k\357SU\325\277\333\024\217\213j\021\221?F]k\357SU\325\277\333\024\217\213j\021\221?F]k\357SU\325\277\333\024\217\213j\021\221?F]k\357SU\325\277\333\024\217\213j\021\221?F]k\357SU\325\277\333\024\217\213j\021\221?F]k\357SU\325\277\333\024\217\213j\021\221?F]k\357SU\325\277\333\024\217\213j\021\221?F]k\357SU\325\277\333\024\217\213j\021\221?F]k\357SU\325\277\333\024\217\213j\021\221?F]k\357SU\325\277\333\024\217\213j\021\221?F]k\357SU\325\277\333\024\217\213j\021\221?F]k\357SU\325\277\333\024\217\213j\021\221?F]k\357SU\325\277\333\024\217\213j\021\221?F]k\357SU\325\277\333\024\217\213j\021\221?F]k\357SU\325\277\333\024\217\213j\021\221?F]k\357SU\325\277\333\024\217\213j\021\221?F]k\357SU\325\277\333\024\217\213j\021\221?F]k\357SU\325\277\333\024\217\213j\021\221?F]k\357SU\325\277\333\024\217\213j\021\221?F]k\357SU\325\277\333\024\217\213j\021\221?F]k\357SU\325\277\333\024\217\213j\021\221?F]k\357SU\325\277\333\024\217\213j\021\221?F]k\357SU\325\277\333\024\217\213j\021\221?F]k\357SU\325\277\333\024\217\213j\021\221?F]k\357SU\325\277\333\024\217\213j\021\221?F]k\357SU\325\277\333\024\217\213j\021\221?F]k\357SU\325\277\333\024\217\213j\021\221?F]k\357SU\325\277\333\024\217\213j\021\221?F]k\357SU\325\277\333\024\217\213j\021\221?F]k\357SU\325\277\333\024\217\213j\021\221?F]k\357SU\325\277\333\024\217\213j\021\221?F]k\357SU\325\277\333\024\217\213j\021\221?F]k\357SU\325\277\333\024\217\213j\021\221?F]k\357SU\325\277\333\024\217\213j\021\221?F]k\357SU\325\277\333\024\217\213j\021\221?F]k\357SU\325\277\333\024\217\213j\021\221?F]k\357SU\325\277\333\024\217\213j\021\221?F]k\357SU\325\277\333\024\217\213j\021\221?F]k\357SU\325\277\333\024\217\213j\021\221?F]k\357SU\325\277\333\024\217\213j\021\221?F]k\357SU\325\277\333\024\217\213j\021\221?F]k\357SU\325\277\333\024\217\213j\021\221?F]k\357SU\325\277\333\024\217\213j\021\221?F]k\357SU\325\277\333\024\217\213j\021\221?F]k\357SU\325\277\333\024\217\213j\021\221?\243\256\265\367\251\252\352\277\320^}<\364\335\235?\243\256\265\367\251\252\352\277\320^}<\364\335\235?\243\256\265\367\251\252\352\277\320^}<\364\335\235?\243\256\265\367\251\252\352\277\320^}<\364\335\235?\243\256\265\367\251\252\352\277\320^}<\364\335\235?\243\256\265\367\251\252\352\277\320^}<\364\335\235?\243\256\265\367\251\252\352\277\320^}<\364\335\235?\243\256\265\367\251\252\352\277\320^}<\364\335\235?\243\256\265\367\251\252\352\277\320^}<\364\335\235?\243\256\265\367\251\252\352\277\320^}<\364\335\235?\243\256\265\367\251\252\352\277\320^}<\364\335\235?\243\256\265\367\251\252\352\277\320^}<\364\335\235?\243\256\265\367\251\252\352\277\320^}<\364\335\235?\243\256\265\367\251\252\352\277\320^}<\364\335\235?\243\256\265\367\251\252\352\277\320^}<\364\335\235?\243\256\265\367\251\252\352\277\320^}<\364\335\235?\243\256\265\367\251\252\352\277\320^}<\364\335\235?\243\256\265\367\251\252\352\277\320^}<\364\335\235?\243\256\265\367\251\252\352\277\320^}<\364\335\235?\243\256\265\367\251\252\352\277\320^}<\364\335\235?\243\256\265\367\251\252\352\277\320^}<\364\335\235?\243\256\265\367\251\252\352\277\320^}<\364\335\235?\243\256\265\367\251\252\352\277\320^}<\364\335\235?\243\256\265\367\251\252\352\277\320^}<\364\335\235?\243\256\265\367\251\252\352\277\320^}<\364\335\235?\243\256\265\367\251\252\352\277\320^}<\364\335\235?\243\256\265\367\251\252\352\277\320^}<\364\335\235?\243\256\265\367\251\252\352\277\320^}<\364\335\235?\243\256\265\367\251\252\352\277\320^}<\364\335\235?\243\256\265\367\251\252\352\277\320^}<\364\335\235?\243\256\265\367\251\252\352\277\320^}<\364\335\235?\243\256\265\367\251\252\352\277\320^}<\364\335\235?\243\256\265\367\251\252\352\277\320^}<\364\335\235?\243\256\265\367\251\252\352\277\320^}<\364\335\235?\243\256\265\367\251\252\352\277\320^}<\364\335\235?\243\256\265\367\251\252\352\277\320^}<\364\335\235?\243\256\265\367\251\252\352\277\320^}<\364\335\235?\243\256\265\367\251\252\352\277\320^}<\364\335\235?\243\256\265\367\251\252\352\277\320^}<\364\335\235?\243\256\265\367\251\252\352\277\320^}<\364\335\235?\243\256\265\367\251\252\352\277\320^}<\364\335\235?\243\256\265\367\251\252\352\277\320^}<\364\335\235?\243\256\265\367\251\252\352\277\320^}<\364\335\235?\243\256\265\367\251\252\352\277\320^}<\364\335\235?\243\256\265\367\251\252\352\277\320^}<\364\335\235?\243\256\265\367\251\252\352\277\320^}<\364\335\235?\243\256\265\367\251\252\352\277\320^}<\364\335\235?\243\256\265\367\251\252\352\277\320^}<\364\335\235?\243\256\265\367\251\252\352\277\320^}<\364\335\235?\243\256\265\367\251\252\352\277\320^}<\364\335\235?\251k\355}\252\252\002\300I\237V\321\037\232\211?\251k\355}\252\252\002\300I\237V\321\037\232\211?\251k\355}\252\252\002\300I\237V\321\037\232\211?\251k\355}\252\252\002\300I\237V\321\037\232\211?\251k\355}\252\252\002\300I\237V\321\037\232\211?\251k\355}\252\252\002\300I\237V\321\037\232\211?\251k\355}\252\252\002\300I\237V\321\037\232\211?\251k\355}\252\252\002\300I\237V\321\037\232\211?\251k\355}\252\252\002\300I\237V\321\037\232\211?\251k\355}\252\252\002\300I\237V\321\037\232\211?\251k\355}\252\252\002\300I\237V\321\037\232\211?\251k\355}\252\252\002\300I\237V\321\037\232\211?\251k\355}\252\252\002\300I\237V\321\037\232\211?\251k\355}\252\252\002\300I\237V\321\037\232\211?\251k\355}\252\252\002\300I\237V\321\037\232\211?\251k\355}\252\252\002\300I\237V\321\037\232\211?\251k\355}\252\252\002\300I\237V\321\037\232\211?\251k\355}\252\252\002\300I\237V\321\037\232\211?\251k\355}\252\252\002\300I\237V\321\037\232\211?\251k\355}\252\252\002\300I\237V\321\037\232\211?\251k\355}\252\252\002\300I\237V\321\037\232\211?\251k\355}\252\252\002\300I\237V\321\037\232\211?\251k\355}\252\252\002\300I\237V\321\037\232\211?\251k\355}\252\252\002\300I\237V\321\037\232\211?\251k\355}\252\252\002\300I\237V\321\037\232\211?\251k\355}\252\252\002\300I\237V\321\037\232\211?\251k\355}\252\252\002\300I\237V\321\037\232\211?\251k\355}\252\252\002\300I\237V\321\037\232\211?\251k\355}\252\252\002\300I\237V\321\037\232\211?\251k\355}\252\252\002\300I\237V\321\037\232\211?\251k\355}\252\252\002\300I\237V\321\037\232\211?\251k\355}\252\252\002\300I\237V\321\037\232\211?\251k\355}\252\252\002\300I\237V\321\037\232\211?\251k\355}\252\252\002\300I\237V\321\037\232\211?\251k\355}\252\252\002\300I\237V\321\037\232\211?\251k\355}\252\252\002\300I\237V\321\037\232\211?\251k\355}\252\252\002\300I\237V\321\037\232\211?\251k\355}\252\252\002\300I\237V\321\037\232\211?\251k\355}\252\252\002\300I\237V\321\037\232\211?\251k\355}\252\252\002\300I\237V\321\037\232\211?\251k\355}\252\252\002\300I\237V\321\037\232\211?\251k\355}\252\252\002\300I\237V\321\037\232\211?\251k\355}\252\252\002\300I\237V\321\037\232\211?\251k\355}\252\252\002\300I\237V\321\037\232\211?\251k\355}\252\252\002\300I\237V\321\037\232\211?\251k\355}\252\252\002\300I\237V\321\037\232\211?\251k\355}\252\252\002\300I\237V\321\037\232\211?\251k\355}\252\252\002\300I\237V\321\037\232\211?\251k\355}\252\252\002\300I\237V\321\037\232\211?\251k\355}\252\252\002\300I\237V\321\037\232\211?\251k\355}\252\252\002\300\320^}<\364\335\235?\251k\355}\252\252\002\300\320^}<\364\335\235?\251k\355}\252\252\002\300\320^}<\364\335\235?\251k\355}\252\252\002\300\320^}<\364\335\235?\251k\355}\252\252\002\300\320^}<\364\335\235?\251k\355}\252\252\002\300\320^}<\364\335\235?\251k\355}\252\252\002\300\320^}<\364\335\235?\251k\355}\252\252\002\300\320^}<\364\335\235?\251k\355}\252\252\002\300\320^}<\364\335\235?\251k\355}\252\252\002\300\320^}<\364\335\235?\251k\355}\252\252\002\300\320^}<\364\335\235?\251k\355}\252\252\002\300\320^}<\364\335\235?\251k\355}\252\252\002\300\320^}<\364\335\235?\251k\355}\252\252\002\300\320^}<\364\335\235?\251k\355}\252\252\002\300\320^}<\364\335\235?\251k\355}\252\252\002\300\320^}<\364\335\235?\251k\355}\252\252\002\300\320^}<\364\335\235?\251k\355}\252\252\002\300\320^}<\364\335\235?\251k\355}\252\252\002\300\320^}<\364\335\235?\251k\355}\252\252\002\300\320^}<\364\335\235?\251k\355}\252\252\002\300\320^}<\364\335\235?\251k\355}\252\252\002\300\320^}<\364\335\235?\251k\355}\252\252\002\300\320^}<\364\335\235?\251k\355}\252\252\002\300\320^}<\364\335\235?\251k\355}\252\252\002\300\320^}<\364\335\235?\251k\355}\252\252\002\300\320^}<\364\335\235?\251k\355}\252\252\002\300\320^}<\364\335\235?\251k\355}\252\252\002\300\320^}<\364\335\235?\251k\355}\252\252\002\300\320^}<\364\335\235?\251k\355}\252\252\002\300\320^}<\364\335\235?\251k\355}\252\252\002\300\320^}<\364\335\235?\251k\355}\252\252\002\300\320^}<\364\335\235?\251k\355}\252\252\002\300\320^}<\364\335\235?\251k\355}\252\252\002\300\320^}<\364\335\235?\251k\355}\252\252\002\300\320^}<\364\335\235?\251k\355}\252\252\002\300\320^}<\364\335\235?\251k\355}\252\252\002\300\320^}<\364\335\235?\251k\355}\252\252\002\300\320^}<\364\335\235?\251k\355}\252\252\002\300\320^}<\364\335\235?\251k\355}\252\252\002\300\320^}<\364\335\235?\251k\355}\252\252\002\300\320^}<\364\335\235?\251k\355}\252\252\002\300\320^}<\364\335\235?\251k\355}\252\252\002\300\320^}<\364\335\235?\251k\355}\252\252\002\300\320^}<\364\335\235?\251k\355}\252\252\002\300\320^}<\364\335\235?\251k\355}\252\252\002\300\320^}<\364\335\235?\251k\355}\252\252\002\300\320^}<\364\335\235?\251k\355}\252\252\002\300\320^}<\364\335\235?\251k\355}\252\252\002\300\320^}<\364\335\235?\251k\355}\252\252\002\300\320^}<\364\335\235?\000\000\000\000\000\000\340\277L\250\340\360\202\210\270?\000\000\000\000\000\000\340\277L\250\340\360\202\210\270?\000\000\000\000\000\000\340\277L\250\340\360\202\210\270?\000\000\000\000\000\000\340\277L\250\340\360\202\210\270?\000\000\000\000\000\000\340\277L\250\340\360\202\210\270?\000\000\000\000\000\000\340\277L\250\340\360\202\210\270?\000\000\000\000\000\000\340\277L\250\340\360\202\210\270?\000\000\000\000\000\000\340\277L\250\340\360\202\210\270?\000\000\000\000\000\000\340\277L\250\340\360\202\210\270?\000\000\000\000\000\000\340\277L\250\340\360\202\210\270?\000\000\000\000\000\000\340\277L\250\340\360\202\210\270?\000\000\000\000\000\000\340\277L\250\340\360\202\210\270?\000\000\000\000\000\000\340\277L\250\340\360\202\210\270?\000\000\000\000\000\000\340\277L\250\340\360\202\210\270?\000\000\000\000\000\000\340\277L\250\340\360\202\210\270?\000\000\000\000\000\000\340\277L\250\340\360\202\210\270?\000\000\000\000\000\000\340\277L\250\340\360\202\210\270?\000\000\000\000\000\000\340\277L\250\340\360\202\210\270?\000\000\000\000\000\000\340\277L\250\340\360\202\210\270?\000\000\000\000\000\000\340\277L\250\340\360\202\210\270?\000\000\000\000\000\000\340\277L\250\340\360\202\210\270?\000\000\000\000\000\000\340\277L\250\340\360\202\210\270?\000\000\000\000\000\000\340\277L\250\340\360\202\210\270?\000\000\000\000\000\000\340\277L\250\340\360\202\210\270?\000\000\000\000\000\000\340\277L\250\340\360\202\210\270?\000\000\000\000\000\000\340\277L\250\340\360\202\210\270?\000\000\000\000\000\000\340\277L\250\340\360\202\210\270?\000\000\000\000\000\000\340\277L\250\340\360\202\210\270?\000\000\000\000\000\000\340\277L\250\340\360\202\210\270?\000\000\000\000\000\000\340\277L\250\340\360\202\210\270?\000\000\000\000\000\000\340\277L\250\340\360\202\210\270?\000\000\000\000\000\000\340\277L\250\340\360\202\210\270?\000\000\000\000\000\000\340\277L\250\340\360\202\210\270?\000\000\000\000\000\000\340\277L\250\340\360\202\210\270?\000\000\000\000\000\000\340\277L\250\340\360\202\210\270?\000\000\000\000\000\000\340\277L\250\340\360\202\210\270?\000\000\000\000\000\000\340\277L\250\340\360\202\210\270?\000\000\000\000\000\000\340\277L\250\340\360\202\210\270?\000\000\000\000\000\000\340\277L\250\340\360\202\210\270?\000\000\000\000\000\000\340\277L\250\340\360\202\210\270?\000\000\000\000\000\000\340\277L\250\340\360\202\210\270?\000\000\000\000\000\000\340\277L\250\340\360\202\210\270?\000\000\000\000\000\000\340\277L\250\340\360\202\210\270?\000\000\000\000\000\000\340\277L\250\340\360\202\210\270?\000\000\000\000\000\000\340\277L\250\340\360\202\210\270?\000\000\000\000\000\000\340\277L\250\340\360\202\210\270?\000\000\000\000\000\000\340\277L\250\340\360\202\210\270?\000\000\000\000\000\000\340\277L\250\340\360\202\210\270?\000\000\000\000\000\000\340\277L\250\340\360\202\210\270?\000\000\000\000\000\000\340\277L\250\340\360\202\210\270?\000\000\000\000\000\000\000\000ffffff\266?\000\000\000\000\000\000\000\000ffffff\266?\000\000\000\000\000\000\000\000ffffff\266?\000\000\000\000\000\000\000\000ffffff\266?\000\000\000\000\000\000\000\000ffffff\266?\000\000\000\000\000\000\000\000ffffff\266?\000\000\000\000\000\000\000\000ffffff\266?\000\000\000\000\000\000\000\000ffffff\266?\000\000\000\000\000\000\000\000ffffff\266?\000\000\000\000\000\000\000\000ffffff\266?\000\000\000\000\000\000\000\000ffffff\266?\000\000\000\000\000\000\000\000ffffff\266?\000\000\000\000\000\000\000\000ffffff\266?\000\000\000\000\000\000\000\000ffffff\266?\000\000\000\000\000\000\000\000ffffff\266?\000\000\000\000\000\000\000\000ffffff\266?\000\000\000\000\000\000\000\000ffffff\266?\000\000\000\000\000\000\000\000ffffff\266?\000\000\000\000\000\000\000\000ffffff\266?\000\000\000\000\000\000\000\000ffffff\266?\000\000\000\000\000\000\000\000ffffff\266?\000\000\000\000\000\000\000\000ffffff\266?\000\000\000\000\000\000\000\000ffffff\266?\000\000\000\000\000\000\000\000ffffff\266?\000\000\000\000\000\000\000\000ffffff\266?\000\000\000\000\000\000\000\000ffffff\266?\000\000\000\000\000\000\000\000ffffff\266?\000\000\000\000\000\000\000\000ffffff\266?\000\000\000\000\000\000\000\000ffffff\266?\000\000\000\000\000\000\000\000ffffff\266?\000\000\000\000\000\000\000\000ffffff\266?\000\000\000\000\000\000\000\000ffffff\266?\000\000\000\000\000\000\000\000ffffff\266?\000\000\000\000\000\000\000\000ffffff\266?\000\000\000\000\000\000\000\000ffffff\266?\000\000\000\000\000\000\000\000ffffff\266?\000\000\000\000\000\000\000\000ffffff\266?\000\000\000\000\000\000\000\000ffffff\266?\000\000\000\000\000\000\000\000ffffff\266?\000\000\000\000\000\000\000\000ffffff\266?\000\000\000\000\000\000\000\000ffffff\266?\000\000\000\000\000\000\000\000ffffff\266?\000\000\000\000\000\000\000\000ffffff\266?\000\000\000\000\000\000\000\000ffffff\266?\000\000\000\000\000\000\000\000ffffff\266?\000\000\000\000\000\000\000\000ffffff\266?\000\000\000\000\000\000\000\000ffffff\266?\000\000\000\000\000\000\000\000ffffff\266?\000\000\000\000\000\000\000\000ffffff\266?\000\000\000\000\000\000\000\000ffffff\266?\243\256\265\367\251\252\352\277\215\355\265\240\367\306\260>\243\256\265\367\251\252\352\277\215\355\265\240\367\306\260>\243\256\265\367\251\252\352\277\215\355\265\240\367\306\260>\243\256\265\367\251\252\352\277\215\355\265\240\367\306\260>\243\256\265\367\251\252\352\277\215\355\265\240\367\306\260>\243\256\265\367\251\252\352\277\215\355\265\240\367\306\260>\243\256\265\367\251\252\352\277\215\355\265\240\367\306\260>\243\256\265\367\251\252\352\277\215\355\265\240\367\306\260>\243\256\265\367\251\252\352\277\215\355\265\240\367\306\260>\243\256\265\367\251\252\352\277\215\355\265\240\367\306\260>\243\256\265\367\251\252\352\277\215\355\265\240\367\306\260>\243\256\265\367\251\252\352\277\215\355\265\240\367\306\260>\243\256\265\367\251\252\352\277\215\355\265\240\367\306\260>\243\256\265\367\251\252\352\277\215\355\265\240\367\306\260>\243\256\265\367\251\252\352\277\215\355\265\240\367\306\260>\243\256\265\367\251\252\352\277\215\355\265\240\367\306\260>\243\256\265\367\251\252\352\277\215\355\265\240\367\306\260>\243\256\265\367\251\252\352\277\215\355\265\240\367\306\260>\243\256\265\367\251\252\352\277\215\355\265\240\367\306\260>\243\256\265\367\251\252\352\277\215\355\265\240\367\306\260>\243\256\265\367\251\252\352\277\215\355\265\240\367\306\260>\243\256\265\367\251\252\352\277\215\355\265\240\367\306\260>\243\256\265\367\251\252\352\277\215\355\265\240\367\306\260>\243\256\265\367\251\252\352\277\215\355\265\240\367\306\260>\243\256\265\367\251\252\352\277\215\355\265\240\367\306\260>\243\256\265\367\251\252\352\277\215\355\265\240\367\306\260>\243\256\265\367\251\252\352\277\215\355\265\240\367\306\260>\243\256\265\367\251\252\352\277\215\355\265\240\367\306\260>\243\256\265\367\251\252\352\277\215\355\265\240\367\306\260>\243\256\265\367\251\252\352\277\215\355\265\240\367\306\260>\243\256\265\367\251\252\352\277\215\355\265\240\367\306\260>\243\256\265\367\251\252\352\277\215\355\265\240\367\306\260>\243\256\265\367\251\252\352\277\215\355\265\240\367\306\260>\243\256\265\367\251\252\352\277\215\355\265\240\367\306\260>\243\256\265\367\251\252\352\277\215\355\265\240\367\306\260>\243\256\265\367\251\252\352\277\215\355\265\240\367\306\260>\243\256\265\367\251\252\352\277\215\355\265\240\367\306\260>\243\256\265\367\251\252\352\277\215\355\265\240\367\306\260>\243\256\265\367\251\252\352\277\215\355\265\240\367\306\260>\243\256\265\367\251\252\352\277\215\355\265\240\367\306\260>\243\256\265\367\251\252\352\277\215\355\265\240\367\306\260>\243\256\265\367\251\252\352\277\215\355\265\240\367\306\260>\243\256\265\367\251\252\352\277\215\355\265\240\367\306\260>\243\256\265\367\251\252\352\277\215\355\265\240\367\306\260>\243\256\265\367\251\252\352\277\215\355\265\240\367\306\260>\243\256\265\367\251\252\352\277\215\355\265\240\367\306\260>\243\256\265\367\251\252\352\277\215\355\265\240\367\306\260>\243\256\265\367\251\252\352\277\215\355\265\240\367\306\260>\243\256\265\367\251\252\352\277\215\355\265\240\367\306\260>\243\256\265\367\251\252\352\277\215\355\265\240\367\306\260>F]k\357SU\325\277I\237V\321\037\232\211?F]k\357SU\325\277I\237V\321\037\232\211?F]k\357SU\325\277I\237V\321\037\232\211?F]k\357SU\325\277I\237V\321\037\232\211?F]k\357SU\325\277I\237V\321\037\232\211?F]k\357SU\325\277I\237V\321\037\232\211?F]k\357SU\325\277I\237V\321\037\232\211?F]k\357SU\325\277I\237V\321\037\232\211?F]k\357SU\325\277I\237V\321\037\232\211?F]k\357SU\325\277I\237V\321\037\232\211?F]k\357SU\325\277I\237V\321\037\232\211?F]k\357SU\325\277I\237V\321\037\232\211?F]k\357SU\325\277I\237V\321\037\232\211?F]k\357SU\325\277I\237V\321\037\232\211?F]k\357SU\325\277I\237V\321\037\232\211?F]k\357SU\325\277I\237V\321\037\232\211?F]k\357SU\325\277I\237V\321\037\232\211?F]k\357SU\325\277I\237V\321\037\232\211?F]k\357SU\325\277I\237V\321\037\232\211?F]k\357SU\325\277I\237V\321\037\232\211?F]k\357SU\325\277I\237V\321\037\232\211?F]k\357SU\325\277I\237V\321\037\232\211?F]k\357SU\325\277I\237V\321\037\232\211?F]k\357SU\325\277I\237V\321\037\232\211?F]k\357SU\325\277I\237V\321\037\232\211?F]k\357SU\325\277I\237V\321\037\232\211?F]k\357SU\325\277I\237V\321\037\232\211?F]k\357SU\325\277I\237V\321\037\232\211?F]k\357SU\325\277I\237V\321\037\232\211?F]k\357SU\325\277I\237V\321\037\232\211?F]k\357SU\325\277I\237V\321\037\232\211?F]k\357SU\325\277I\237V\321\037\232\211?F]k\357SU\325\277I\237V\321\037\232\211?F]k\357SU\325\277I\237V\321\037\232\211?F]k\357SU\325\277I\237V\321\037\232\211?F]k\357SU\325\277I\237V\321\037\232\211?F]k\357SU\325\277I\237V\321\037\232\211?F]k\357SU\325\277I\237V\321\037\232\211?F]k\357SU\325\277I\237V\321\037\232\211?F]k\357SU\325\277I\237V\321\037\232\211?F]k\357SU\325\277I\237V\321\037\232\211?F]k\357SU\325\277I\237V\321\037\232\211?F]k\357SU\325\277I\237V\321\037\232\211?F]k\357SU\325\277I\237V\321\037\232\211?F]k\357SU\325\277I\237V\321\037\232\211?F]k\357SU\325\277I\237V\321\037\232\211?F]k\357SU\325\277I\237V\321\037\232\211?F]k\357SU\325\277I\237V\321\037\232\211?F]k\357SU\325\277I\237V\321\037\232\211?F]k\357SU\325\277I\237V\321\037\232\211?R\327\332\373TU\365\277\000\000\000\000\000\000\260?R\327\332\373TU\365\277\000\000\000\000\000\000\260?R\327\332\373TU\365\277\000\000\000\000\000\000\260?R\327\332\373TU\365\277\000\000\000\000\000\000\260?R\327\332\373TU\365\277\000\000\000\000\000\000\260?R\327\332\373TU\365\277\000\000\000\000\000\000\260?R\327\332\373TU\365\277\000\000\000\000\000\000\260?R\327\332\373TU\365\277\000\000\000\000\000\000\260?R\327\332\373TU\365\277\000\000\000\000\000\000\260?R\327\332\373TU\365\277\000\000\000\000\000\000\260?R\327\332\373TU\365\277\000\000\000\000\000\000\260?R\327\332\373TU\365\277\000\000\000\000\000\000\260?R\327\332\373TU\365\277\000\000\000\000\000\000\260?R\327\332\373TU\365\277\000\000\000\000\000\000\260?R\327\332\373TU\365\277\000\000\000\000\000\000\260?R\327\332\373TU\365\277\000\000\000\000\000\000\260?R\327\332\373TU\365\277\000\000\000\000\000\000\260?R\327\332\373TU\365\277\000\000\000\000\000\000\260?R\327\332\373TU\365\277\000\000\000\000\000\000\260?R\327\332\373TU\365\277\000\000\000\000\000\000\260?R\327\332\373TU\365\277\000\000\000\000\000\000\260?R\327\332\373TU\365\277\000\000\000\000\000\000\260?R\327\332\373TU\365\277\000\000\000\000\000\000\260?R\327\332\373TU\365\277\000\000\000\000\000\000\260?R\327\332\373TU\365\277\000\000\000\000\000\000\260?R\327\332\373TU\365\277\000\000\000\000\000\000\260?R\327\332\373TU\365\277\000\000\000\000\000\000\260?R\327\332\373TU\365\277\000\000\000\000\000\000\260?R\327\332\373TU\365\277\000\000\000\000\000\000\260?R\327\332\373TU\365\277\000\000\000\000\000\000\260?R\327\332\373TU\365\277\000\000\000\000\000\000\260?R\327\332\373TU\365\277\000\000\000\000\000\000\260?R\327\332\373TU\365\277\000\000\000\000\000\000\260?R\327\332\373TU\365\277\000\000\000\000\000\000\260?R\327\332\373TU\365\277\000\000\000\000\000\000\260?R\327\332\373TU\365\277\000\000\000\000\000\000\260?R\327\332\373TU\365\277\000\000\000\000\000\000\260?R\327\332\373TU\365\277\000\000\000\000\000\000\260?R\327\332\373TU\365\277\000\000\000\000\000\000\260?R\327\332\373TU\365\277\000\000\000\000\000\000\260?R\327\332\373TU\365\277\000\000\000\000\000\000\260?R\327\332\373TU\365\277\000\000\000\000\000\000\260?R\327\332\373TU\365\277\000\000\000\000\000\000\260?R\327\332\373TU\365\277\000\000\000\000\000\000\260?R\327\332\373TU\365\277\000\000\000\000\000\000\260?R\327\332\373TU\365\277\000\000\000\000\000\000\260?R\327\332\373TU\365\277\000\000\000\000\000\000\260?R\327\332\373TU\365\277\000\000\000\000\000\000\260?R\327\332\373TU\365\277\000\000\000\000\000\000\260?R\327\332\373TU\365\277\000\000\000\000\000\000\260?]QJ\010VU\345\277j\370\026\326\215w\247?]QJ\010VU\345\277j\370\026\326\215w\247?]QJ\010VU\345\277j\370\026\326\215w\247?]QJ\010VU\345\277j\370\026\326\215w\247?]QJ\010VU\345\277j\370\026\326\215w\247?]QJ\010VU\345\277j\370\026\326\215w\247?]QJ\010VU\345\277j\370\026\326\215w\247?]QJ\010VU\345\277j\370\026\326\215w\247?]QJ\010VU\345\277j\370\026\326\215w\247?]QJ\010VU\345\277j\370\026\326\215w\247?]QJ\010VU\345\277j\370\026\326\215w\247?]QJ\010VU\345\277j\370\026\326\215w\247?]QJ\010VU\345\277j\370\026\326\215w\247?]QJ\010VU\345\277j\370\026\326\215w\247?]QJ\010VU\345\277j\370\026\326\215w\247?]QJ\010VU\345\277j\370\026\326\215w\247?]QJ\010VU\345\277j\370\026\326\215w\247?]QJ\010VU\345\277j\370\026\326\215w\247?]QJ\010VU\345\277j\370\026\326\215w\247?]QJ\010VU\345\277j\370\026\326\215w\247?]QJ\010VU\345\277j\370\026\326\215w\247?]QJ\010VU\345\277j\370\026\326\215w\247?]QJ\010VU\345\277j\370\026\326\215w\247?]QJ\010VU\345\277j\370\026\326\215w\247?]QJ\010VU\345\277j\370\026\326\215w\247?]QJ\010VU\345\277j\370\026\326\215w\247?]QJ\010VU\345\277j\370\026\326\215w\247?]QJ\010VU\345\277j\370\026\326\215w\247?]QJ\010VU\345\277j\370\026\326\215w\247?]QJ\010VU\345\277j\370\026\326\215w\247?]QJ\010VU\345\277j\370\026\326\215w\247?]QJ\010VU\345\277j\370\026\326\215w\247?]QJ\010VU\345\277j\370\026\326\215w\247?]QJ\010VU\345\277j\370\026\326\215w\247?]QJ\010VU\345\277j\370\026\326\215w\247?]QJ\010VU\345\277j\370\026\326\215w\247?]QJ\010VU\345\277j\370\026\326\215w\247?]QJ\010VU\345\277j\370\026\326\215w\247?]QJ\010VU\345\277j\370\026\326\215w\247?]QJ\010VU\345\277j\370\026\326\215w\247?]QJ\010VU\345\277j\370\026\326\215w\247?]QJ\010VU\345\277j\370\026\326\215w\247?]QJ\010VU\345\277j\370\026\326\215w\247?]QJ\010VU\345\277j\370\026\326\215w\247?]QJ\010VU\345\277j\370\026\326\215w\247?]QJ\010VU\345\277j\370\026\326\215w\247?]QJ\010VU\345\277j\370\026\326\215w\247?]QJ\010VU\345\277j\370\026\326\215w\247?]QJ\010VU\345\277j\370\026\326\215w\247?]QJ\010VU\345\277j\370\026\326\215w\247?\251k\355}\252\252\002\300\333\024\217\213j\021\201?\251k\355}\252\252\002\300\333\024\217\213j\021\201?\251k\355}\252\252\002\300\333\024\217\213j\021\201?\251k\355}\252\252\002\300\333\024\217\213j\021\201?\251k\355}\252\252\002\300\333\024\217\213j\021\201?\251k\355}\252\252\002\300\333\024\217\213j\021\201?\251k\355}\252\252\002\300\333\024\217\213j\021\201?\251k\355}\252\252\002\300\333\024\217\213j\021\201?\251k\355}\252\252\002\300\333\024\217\213j\021\201?\251k\355}\252\252\002\300\333\024\217\213j\021\201?\251k\355}\252\252\002\300\333\024\217\213j\021\201?\251k\355}\252\252\002\300\333\024\217\213j\021\201?\251k\355}\252\252\002\300\333\024\217\213j\021\201?\251k\355}\252\252\002\300\333\024\217\213j\021\201?\251k\355}\252\252\002\300\333\024\217\213j\021\201?\251k\355}\252\252\002\300\333\024\217\213j\021\201?\251k\355}\252\252\002\300\333\024\217\213j\021\201?\251k\355}\252\252\002\300\333\024\217\213j\021\201?\251k\355}\252\252\002\300\333\024\217\213j\021\201?\251k\355}\252\252\002\300\333\024\217\213j\021\201?\251k\355}\252\252\002\300\333\024\217\213j\021\201?\251k\355}\252\252\002\300\333\024\217\213j\021\201?\251k\355}\252\252\002\300\333\024\217\213j\021\201?\251k\355}\252\252\002\300\333\024\217\213j\021\201?\251k\355}\252\252\002\300\333\024\217\213j\021\201?\251k\355}\252\252\002\300\333\024\217\213j\021\201?\251k\355}\252\252\002\300\333\024\217\213j\021\201?\251k\355}\252\252\002\300\333\024\217\213j\021\201?\251k\355}\252\252\002\300\333\024\217\213j\021\201?\251k\355}\252\252\002\300\333\024\217\213j\021\201?\251k\355}\252\252\002\300\333\024\217\213j\021\201?\251k\355}\252\252\002\300\333\024\217\213j\021\201?\251k\355}\252\252\002\300\333\024\217\213j\021\201?\251k\355}\252\252\002\300\333\024\217\213j\021\201?\251k\355}\252\252\002\300\333\024\217\213j\021\201?\251k\355}\252\252\002\300\333\024\217\213j\021\201?\251k\355}\252\252\002\300\333\024\217\213j\021\201?\251k\355}\252\252\002\300\333\024\217\213j\021\201?\251k\355}\252\252\002\300\333\024\217\213j\021\201?\251k\355}\252\252\002\300\333\024\217\213j\021\201?\251k\355}\252\252\002\300\333\024\217\213j\021\201?\251k\355}\252\252\002\300\333\024\217\213j\021\201?\251k\355}\252\252\002\300\333\024\217\213j\021\201?\251k\355}\252\252\002\300\333\024\217\213j\021\201?\251k\355}\252\252\002\300\333\024\217\213j\021\201?\251k\355}\252\252\002\300\333\024\217\213j\021\201?\251k\355}\252\252\002\300\333\024\217\213j\021\201?\251k\355}\252\252\002\300\333\024\217\213j\021\201?\251k\355}\252\252\002\300\333\024\217\213j\021\201?\251k\355}\252\252\002\300\333\024\217\213j\021\201?F]k\357SU\325?N\361\270\250\026\021\261?F]k\357SU\325?N\361\270\250\026\021\261?F]k\357SU\325?N\361\270\250\026\021\261?F]k\357SU\325?N\361\270\250\026\021\261?F]k\357SU\325?N\361\270\250\026\021\261?F]k\357SU\325?N\361\270\250\026\021\261?F]k\357SU\325?N\361\270\250\026\021\261?F]k\357SU\325?N\361\270\250\026\021\261?F]k\357SU\325?N\361\270\250\026\021\261?F]k\357SU\325?N\361\270\250\026\021\261?F]k\357SU\325?N\361\270\250\026\021\261?F]k\357SU\325?N\361\270\250\026\021\261?F]k\357SU\325?N\361\270\250\026\021\261?F]k\357SU\325?N\361\270\250\026\021\261?F]k\357SU\325?N\361\270\250\026\021\261?F]k\357SU\325?N\361\270\250\026\021\261?F]k\357SU\325?N\361\270\250\026\021\261?F]k\357SU\325?N\361\270\250\026\021\261?F]k\357SU\325?N\361\270\250\026\021\261?F]k\357SU\325?N\361\270\250\026\021\261?F]k\357SU\325?N\361\270\250\026\021\261?F]k\357SU\325?N\361\270\250\026\021\261?F]k\357SU\325?N\361\270\250\026\021\261?F]k\357SU\325?N\361\270\250\026\021\261?F]k\357SU\325?N\361\270\250\026\021\261?F]k\357SU\325?N\361\270\250\026\021\261?F]k\357SU\325?N\361\270\250\026\021\261?F]k\357SU\325?N\361\270\250\026\021\261?F]k\357SU\325?N\361\270\250\026\021\261?F]k\357SU\325?N\361\270\250\026\021\261?F]k\357SU\325?N\361\270\250\026\021\261?F]k\357SU\325?N\361\270\250\026\021\261?F]k\357SU\325?N\361\270\250\026\021\261?F]k\357SU\325?N\361\270\250\026\021\261?F]k\357SU\325?N\361\270\250\026\021\261?F]k\357SU\325?N\361\270\250\026\021\261?F]k\357SU\325?N\361\270\250\026\021\261?F]k\357SU\325?N\361\270\250\026\021\261?F]k\357SU\325?N\361\270\250\026\021\261?F]k\357SU\325?N\361\270\250\026\021\261?F]k\357SU\325?N\361\270\250\026\021\261?F]k\357SU\325?N\361\270\250\026\021\261?F]k\357SU\325?N\361\270\250\026\021\261?F]k\357SU\325?N\361\270\250\026\021\261?F]k\357SU\325?N\361\270\250\026\021\261?F]k\357SU\325?N\361\270\250\026\021\261?F]k\357SU\325?N\361\270\250\026\021\261?F]k\357SU\325?N\361\270\250\026\021\261?F]k\357SU\325?N\361\270\250\026\021\261?F]k\357SU\325?N\361\270\250\026\021\261?]QJ\010VU\345\277\333\024\217\213j\021\201?]QJ\010VU\345\277\333\024\217\213j\021\201?]QJ\010VU\345\277\333\024\217\213j\021\201?]QJ\010VU\345\277\333\024\217\213j\021\201?]QJ\010VU\345\277\333\024\217\213j\021\201?]QJ\010VU\345\277\333\024\217\213j\021\201?]QJ\010VU\345\277\333\024\217\213j\021\201?]QJ\010VU\345\277\333\024\217\213j\021\201?]QJ\010VU\345\277\333\024\217\213j\021\201?]QJ\010VU\345\277\333\024\217\213j\021\201?]QJ\010VU\345\277\333\024\217\213j\021\201?]QJ\010VU\345\277\333\024\217\213j\021\201?]QJ\010VU\345\277\333\024\217\213j\021\201?]QJ\010VU\345\277\333\024\217\213j\021\201?]QJ\010VU\345\277\333\024\217\213j\021\201?]QJ\010VU\345\277\333\024\217\213j\021\201?]QJ\010VU\345\277\333\024\217\213j\021\201?]QJ\010VU\345\277\333\024\217\213j\021\201?]QJ\010VU\345\277\333\024\217\213j\021\201?]QJ\010VU\345\277\333\024\217\213j\021\201?]QJ\010VU\345\277\333\024\217\213j\021\201?]QJ\010VU\345\277\333\024\217\213j\021\201?]QJ\010VU\345\277\333\024\217\213j\021\201?]QJ\010VU\345\277\333\024\217\213j\021\201?]QJ\010VU\345\277\333\024\217\213j\021\201?]QJ\010VU\345\277\333\024\217\213j\021\201?]QJ\010VU\345\277\333\024\217\213j\021\201?]QJ\010VU\345\277\333\024\217\213j\021\201?]QJ\010VU\345\277\333\024\217\213j\021\201?]QJ\010VU\345\277\333\024\217\213j\021\201?]QJ\010VU\345\277\333\024\217\213j\021\201?]QJ\010VU\345\277\333\024\217\213j\021\201?]QJ\010VU\345\277\333\024\217\213j\021\201?]QJ\010VU\345\277\333\024\217\213j\021\201?]QJ\010VU\345\277\333\024\217\213j\021\201?]QJ\010VU\345\277\333\024\217\213j\021\201?]QJ\010VU\345\277\333\024\217\213j\021\201?]QJ\010VU\345\277\333\024\217\213j\021\201?]QJ\010VU\345\277\333\024\217\213j\021\201?]QJ\010VU\345\277\333\024\217\213j\021\201?]QJ\010VU\345\277\333\024\217\213j\021\201?]QJ\010VU\345\277\333\024\217\213j\021\201?]QJ\010VU\345\277\333\024\217\213j\021\201?]QJ\010VU\345\277\333\024\217\213j\021\201?]QJ\010VU\345\277\333\024\217\213j\021\201?]QJ\010VU\345\277\333\024\217\213j\021\201?]QJ\010VU\345\277\333\024\217\213j\021\201?]QJ\010VU\345\277\333\024\217\213j\021\201?]QJ\010VU\345\277\333\024\217\213j\021\201?]QJ\010VU\345\277\333\024\217\213j\021\201?\000\000\000\000\000\000\360?\264W\037\017}w\267?\000\000\000\000\000\000\360?\264W\037\017}w\267?\000\000\000\000\000\000\360?\264W\037\017}w\267?\000\000\000\000\000\000\360?\264W\037\017}w\267?\000\000\000\000\000\000\360?\264W\037\017}w\267?\000\000\000\000\000\000\360?\264W\037\017}w\267?\000\000\000\000\000\000\360?\264W\037\017}w\267?\000\000\000\000\000\000\360?\264W\037\017}w\267?\000\000\000\000\000\000\360?\264W\037\017}w\267?\000\000\000\000\000\000\360?\264W\037\017}w\267?\000\000\000\000\000\000\360?\264W\037\017}w\267?\000\000\000\000\000\000\360?\264W\037\017}w\267?\000\000\000\000\000\000\360?\264W\037\017}w\267?\000\000\000\000\000\000\360?\264W\037\017}w\267?\000\000\000\000\000\000\360?\264W\037\017}w\267?\000\000\000\000\000\000\360?\264W\037\017}w\267?\000\000\000\000\000\000\360?\264W\037\017}w\267?\000\000\000\000\000\000\360?\264W\037\017}w\267?\000\000\000\000\000\000\360?\264W\037\017}w\267?\000\000\000\000\000\000\360?\264W\037\017}w\267?\000\000\000\000\000\000\360?\264W\037\017}w\267?\000\000\000\000\000\000\360?\264W\037\017}w\267?\000\000\000\000\000\000\360?\264W\037\017}w\267?\000\000\000\000\000\000\360?\264W\037\017}w\267?\000\000\000\000\000\000\360?\264W\037\017}w\267?\000\000\000\000\000\000\360?\264W\037\017}w\267?\000\000\000\000\000\000\360?\264W\037\017}w\267?\000\000\000\000\000\000\360?\264W\037\017}w\267?\000\000\000\000\000\000\360?\264W\037\017}w\267?\000\000\000\000\000\000\360?\264W\037\017}w\267?\000\000\000\000\000\000\360?\264W\037\017}w\267?\000\000\000\000\000\000\360?\264W\037\017}w\267?\000\000\000\000\000\000\360?\264W\037\017}w\267?\000\000\000\000\000\000\360?\264W\037\017}w\267?\000\000\000\000\000\000\360?\264W\037\017}w\267?\000\000\000\000\000\000\360?\264W\037\017}w\267?\000\000\000\000\000\000\360?\264W\037\017}w\267?\000\000\000\000\000\000\360?\264W\037\017}w\267?\000\000\000\000\000\000\360?\264W\037\017}w\267?\000\000\000\000\000\000\360?\264W\037\017}w\267?\000\000\000\000\000\000\360?\264W\037\017}w\267?\000\000\000\000\000\000\360?\264W\037\017}w\267?\000\000\000\000\000\000\360?\264W\037\017}w\267?\000\000\000\000\000\000\360?\264W\037\017}w\267?\000\000\000\000\000\000\360?\264W\037\017}w\267?\000\000\000\000\000\000\360?\264W\037\017}w\267?\000\000\000\000\000\000\360?\264W\037\017}w\267?\000\000\000\000\000\000\360?\264W\037\017}w\267?\000\000\000\000\000\000\360?\264W\037\017}w\267?\000\000\000\000\000\000\360?\264W\037\017}w\267?W\224\022\202UU\001\300\000\000\000\000\000\000\260?W\224\022\202UU\001\300\000\000\000\000\000\000\260?W\224\022\202UU\001\300\000\000\000\000\000\000\260?W\224\022\202UU\001\300\000\000\000\000\000\000\260?W\224\022\202UU\001\300\000\000\000\000\000\000\260?W\224\022\202UU\001\300\000\000\000\000\000\000\260?W\224\022\202UU\001\300\000\000\000\000\000\000\260?W\224\022\202UU\001\300\000\000\000\000\000\000\260?W\224\022\202UU\001\300\000\000\000\000\000\000\260?W\224\022\202UU\001\300\000\000\000\000\000\000\260?W\224\022\202UU\001\300\000\000\000\000\000\000\260?W\224\022\202UU\001\300\000\000\000\000\000\000\260?W\224\022\202UU\001\300\000\000\000\000\000\000\260?W\224\022\202UU\001\300\000\000\000\000\000\000\260?W\224\022\202UU\001\300\000\000\000\000\000\000\260?W\224\022\202UU\001\300\000\000\000\000\000\000\260?W\224\022\202UU\001\300\000\000\000\000\000\000\260?W\224\022\202UU\001\300\000\000\000\000\000\000\260?W\224\022\202UU\001\300\000\000\000\000\000\000\260?W\224\022\202UU\001\300\000\000\000\000\000\000\260?W\224\022\202UU\001\300\000\000\000\000\000\000\260?W\224\022\202UU\001\300\000\000\000\000\000\000\260?W\224\022\202UU\001\300\000\000\000\000\000\000\260?W\224\022\202UU\001\300\000\000\000\000\000\000\260?W\224\022\202UU\001\300\000\000\000\000\000\000\260?W\224\022\202UU\001\300\000\000\000\000\000\000\260?W\224\022\202UU\001\300\000\000\000\000\000\000\260?W\224\022\202UU\001\300\000\000\000\000\000\000\260?W\224\022\202UU\001\300\000\000\000\000\000\000\260?W\224\022\202UU\001\300\000\000\000\000\000\000\260?W\224\022\202UU\001\300\000\000\000\000\000\000\260?W\224\022\202UU\001\300\000\000\000\000\000\000\260?W\224\022\202UU\001\300\000\000\000\000\000\000\260?W\224\022\202UU\001\300\000\000\000\000\000\000\260?W\224\022\202UU\001\300\000\000\000\000\000\000\260?W\224\022\202UU\001\300\000\000\000\000\000\000\260?W\224\022\202UU\001\300\000\000\000\000\000\000\260?W\224\022\202UU\001\300\000\000\000\000\000\000\260?W\224\022\202UU\001\300\000\000\000\000\000\000\260?W\224\022\202UU\001\300\000\000\000\000\000\000\260?W\224\022\202UU\001\300\000\000\000\000\000\000\260?W\224\022\202UU\001\300\000\000\000\000\000\000\260?W\224\022\202UU\001\300\000\000\000\000\000\000\260?W\224\022\202UU\001\300\000\000\000\000\000\000\260?W\224\022\202UU\001\300\000\000\000\000\000\000\260?W\224\022\202UU\001\300\000\000\000\000\000\000\260?W\224\022\202UU\001\300\000\000\000\000\000\000\260?W\224\022\202UU\001\300\000\000\000\000\000\000\260?W\224\022\202UU\001\300\000\000\000\000\000\000\260?W\224\022\202UU\001\300\000\000\000\000\000\000\260?F]k\357SU\325\277N\361\270\250\026\021\261?F]k\357SU\325\277N\361\270\250\026\021\261?F]k\357SU\325\277N\361\270\250\026\021\261?F]k\357SU\325\277N\361\270\250\026\021\261?F]k\357SU\325\277N\361\270\250\026\021\261?F]k\357SU\325\277N\361\270\250\026\021\261?F]k\357SU\325\277N\361\270\250\026\021\261?F]k\357SU\325\277N\361\270\250\026\021\261?F]k\357SU\325\277N\361\270\250\026\021\261?F]k\357SU\325\277N\361\270\250\026\021\261?F]k\357SU\325\277N\361\270\250\026\021\261?F]k\357SU\325\277N\361\270\250\026\021\261?F]k\357SU\325\277N\361\270\250\026\021\261?F]k\357SU\325\277N\361\270\250\026\021\261?F]k\357SU\325\277N\361\270\250\026\021\261?F]k\357SU\325\277N\361\270\250\026\021\261?F]k\357SU\325\277N\361\270\250\026\021\261?F]k\357SU\325\277N\361\270\250\026\021\261?F]k\357SU\325\277N\361\270\250\026\021\261?F]k\357SU\325\277N\361\270\250\026\021\261?F]k\357SU\325\277N\361\270\250\026\021\261?F]k\357SU\325\277N\361\270\250\026\021\261?F]k\357SU\325\277N\361\270\250\026\021\261?F]k\357SU\325\277N\361\270\250\026\021\261?F]k\357SU\325\277N\361\270\250\026\021\261?F]k\357SU\325\277N\361\270\250\026\021\261?F]k\357SU\325\277N\361\270\250\026\021\261?F]k\357SU\325\277N\361\270\250\026\021\261?F]k\357SU\325\277N\361\270\250\026\021\261?F]k\357SU\325\277N\361\270\250\026\021\261?F]k\357SU\325\277N\361\270\250\026\021\261?F]k\357SU\325\277N\361\270\250\026\021\261?F]k\357SU\325\277N\361\270\250\026\021\261?F]k\357SU\325\277N\361\270\250\026\021\261?F]k\357SU\325\277N\361\270\250\026\021\261?F]k\357SU\325\277N\361\270\250\026\021\261?F]k\357SU\325\277N\361\270\250\026\021\261?F]k\357SU\325\277N\361\270\250\026\021\261?F]k\357SU\325\277N\361\270\250\026\021\261?F]k\357SU\325\277N\361\270\250\026\021\261?F]k\357SU\325\277N\361\270\250\026\021\261?F]k\357SU\325\277N\361\270\250\026\021\261?F]k\357SU\325\277N\361\270\250\026\021\261?F]k\357SU\325\277N\361\270\250\026\021\261?F]k\357SU\325\277N\361\270\250\026\021\261?F]k\357SU\325\277N\361\270\250\026\021\261?F]k\357SU\325\277N\361\270\250\026\021\261?F]k\357SU\325\277N\361\270\250\026\021\261?F]k\357SU\325\277N\361\270\250\026\021\261?F]k\357SU\325\277N\361\270\250\026\021\261?\000\000\000\000\000\000\370\277\320^}<\364\335\235?\000\000\000\000\000\000\370\277\320^}<\364\335\235?\000\000\000\000\000\000\370\277\320^}<\364\335\235?\000\000\000\000\000\000\370\277\320^}<\364\335\235?\000\000\000\000\000\000\370\277\320^}<\364\335\235?\000\000\000\000\000\000\370\277\320^}<\364\335\235?\000\000\000\000\000\000\370\277\320^}<\364\335\235?\000\000\000\000\000\000\370\277\320^}<\364\335\235?\000\000\000\000\000\000\370\277\320^}<\364\335\235?\000\000\000\000\000\000\370\277\320^}<\364\335\235?\000\000\000\000\000\000\370\277\320^}<\364\335\235?\000\000\000\000\000\000\370\277\320^}<\364\335\235?\000\000\000\000\000\000\370\277\320^}<\364\335\235?\000\000\000\000\000\000\370\277\320^}<\364\335\235?\000\000\000\000\000\000\370\277\320^}<\364\335\235?\000\000\000\000\000\000\370\277\320^}<\364\335\235?\000\000\000\000\000\000\370\277\320^}<\364\335\235?\000\000\000\000\000\000\370\277\320^}<\364\335\235?\000\000\000\000\000\000\370\277\320^}<\364\335\235?\000\000\000\000\000\000\370\277\320^}<\364\335\235?\000\000\000\000\000\000\370\277\320^}<\364\335\235?\000\000\000\000\000\000\370\277\320^}<\364\335\235?\000\000\000\000\000\000\370\277\320^}<\364\335\235?\000\000\000\000\000\000\370\277\320^}<\364\335\235?\000\000\000\000\000\000\370\277\320^}<\364\335\235?\000\000\000\000\000\000\370\277\320^}<\364\335\235?\000\000\000\000\000\000\370\277\320^}<\364\335\235?\000\000\000\000\000\000\370\277\320^}<\364\335\235?\000\000\000\000\000\000\370\277\320^}<\364\335\235?\000\000\000\000\000\000\370\277\320^}<\364\335\235?\000\000\000\000\000\000\370\277\320^}<\364\335\235?\000\000\000\000\000\000\370\277\320^}<\364\335\235?\000\000\000\000\000\000\370\277\320^}<\364\335\235?\000\000\000\000\000\000\370\277\320^}<\364\335\235?\000\000\000\000\000\000\370\277\320^}<\364\335\235?\000\000\000\000\000\000\370\277\320^}<\364\335\235?\000\000\000\000\000\000\370\277\320^}<\364\335\235?\000\000\000\000\000\000\370\277\320^}<\364\335\235?\000\000\000\000\000\000\370\277\320^}<\364\335\235?\000\000\000\000\000\000\370\277\320^}<\364\335\235?\000\000\000\000\000\000\370\277\320^}<\364\335\235?\000\000\000\000\000\000\370\277\320^}<\364\335\235?\000\000\000\000\000\000\370\277\320^}<\364\335\235?\000\000\000\000\000\000\370\277\320^}<\364\335\235?\000\000\000\000\000\000\370\277\320^}<\364\335\235?\000\000\000\000\000\000\370\277\320^}<\364\335\235?\000\000\000\000\000\000\370\277\320^}<\364\335\235?\000\000\000\000\000\000\370\277\320^}<\364\335\235?\000\000\000\000\000\000\370\277\320^}<\364\335\235?\000\000\000\000\000\000\370\277\320^}<\364\335\235?F]k\357SU\325?\320^}<\364\335\235?F]k\357SU\325?\320^}<\364\335\235?F]k\357SU\325?\320^}<\364\335\235?F]k\357SU\325?\320^}<\364\335\235?F]k\357SU\325?\320^}<\364\335\235?F]k\357SU\325?\320^}<\364\335\235?F]k\357SU\325?\320^}<\364\335\235?F]k\357SU\325?\320^}<\364\335\235?F]k\357SU\325?\320^}<\364\335\235?F]k\357SU\325?\320^}<\364\335\235?F]k\357SU\325?\320^}<\364\335\235?F]k\357SU\325?\320^}<\364\335\235?F]k\357SU\325?\320^}<\364\335\235?F]k\357SU\325?\320^}<\364\335\235?F]k\357SU\325?\320^}<\364\335\235?F]k\357SU\325?\320^}<\364\335\235?F]k\357SU\325?\320^}<\364\335\235?F]k\357SU\325?\320^}<\364\335\235?F]k\357SU\325?\320^}<\364\335\235?F]k\357SU\325?\320^}<\364\335\235?F]k\357SU\325?\320^}<\364\335\235?F]k\357SU\325?\320^}<\364\335\235?F]k\357SU\325?\320^}<\364\335\235?F]k\357SU\325?\320^}<\364\335\235?F]k\357SU\325?\320^}<\364\335\235?F]k\357SU\325?\320^}<\364\335\235?F]k\357SU\325?\320^}<\364\335\235?F]k\357SU\325?\320^}<\364\335\235?F]k\357SU\325?\320^}<\364\335\235?F]k\357SU\325?\320^}<\364\335\235?F]k\357SU\325?\320^}<\364\335\235?F]k\357SU\325?\320^}<\364\335\235?F]k\357SU\325?\320^}<\364\335\235?F]k\357SU\325?\320^}<\364\335\235?F]k\357SU\325?\320^}<\364\335\235?F]k\357SU\325?\320^}<\364\335\235?F]k\357SU\325?\320^}<\364\335\235?F]k\357SU\325?\320^}<\364\335\235?F]k\357SU\325?\320^}<\364\335\235?F]k\357SU\325?\320^}<\364\335\235?F]k\357SU\325?\320^}<\364\335\235?F]k\357SU\325?\320^}<\364\335\235?F]k\357SU\325?\320^}<\364\335\235?F]k\357SU\325?\320^}<\364\335\235?F]k\357SU\325?\320^}<\364\335\235?F]k\357SU\325?\320^}<\364\335\235?F]k\357SU\325?\320^}<\364\335\235?F]k\357SU\325?\320^}<\364\335\235?F]k\357SU\325?\320^}<\364\335\235?F]k\357SU\325?\320^}<\364\335\235?]QJ\010VU\345?\201$\354\333ID\264?]QJ\010VU\345?\201$\354\333ID\264?]QJ\010VU\345?\201$\354\333ID\264?]QJ\010VU\345?\201$\354\333ID\264?]QJ\010VU\345?\201$\354\333ID\264?]QJ\010VU\345?\201$\354\333ID\264?]QJ\010VU\345?\201$\354\333ID\264?]QJ\010VU\345?\201$\354\333ID\264?]QJ\010VU\345?\201$\354\333ID\264?]QJ\010VU\345?\201$\354\333ID\264?]QJ\010VU\345?\201$\354\333ID\264?]QJ\010VU\345?\201$\354\333ID\264?]QJ\010VU\345?\201$\354\333ID\264?]QJ\010VU\345?\201$\354\333ID\264?]QJ\010VU\345?\201$\354\333ID\264?]QJ\010VU\345?\201$\354\333ID\264?]QJ\010VU\345?\201$\354\333ID\264?]QJ\010VU\345?\201$\354\333ID\264?]QJ\010VU\345?\201$\354\333ID\264?]QJ\010VU\345?\201$\354\333ID\264?]QJ\010VU\345?\201$\354\333ID\264?]QJ\010VU\345?\201$\354\333ID\264?]QJ\010VU\345?\201$\354\333ID\264?]QJ\010VU\345?\201$\354\333ID\264?]QJ\010VU\345?\201$\354\333ID\264?]QJ\010VU\345?\201$\354\333ID\264?]QJ\010VU\345?\201$\354\333ID\264?]QJ\010VU\345?\201$\354\333ID\264?]QJ\010VU\345?\201$\354\333ID\264?]QJ\010VU\345?\201$\354\333ID\264?]QJ\010VU\345?\201$\354\333ID\264?]QJ\010VU\345?\201$\354\333ID\264?]QJ\010VU\345?\201$\354\333ID\264?]QJ\010VU\345?\201$\354\333ID\264?]QJ\010VU\345?\201$\354\333ID\264?]QJ\010VU\345?\201$\354\333ID\264?]QJ\010VU\345?\201$\354\333ID\264?]QJ\010VU\345?\201$\354\333ID\264?]QJ\010VU\345?\201$\354\333ID\264?]QJ\010VU\345?\201$\354\333ID\264?]QJ\010VU\345?\201$\354\333ID\264?]QJ\010VU\345?\201$\354\333ID\264?]QJ\010VU\345?\201$\354\333ID\264?]QJ\010VU\345?\201$\354\333ID\264?]QJ\010VU\345?\201$\354\333ID\264?]QJ\010VU\345?\201$\354\333ID\264?]QJ\010VU\345?\201$\354\333ID\264?]QJ\010VU\345?\201$\354\333ID\264?]QJ\010VU\345?\201$\354\333ID\264?]QJ\010VU\345?\201$\354\333ID\264?\000\000\000\000\000\000\370\277ffffff\266?\000\000\000\000\000\000\370\277ffffff\266?\000\000\000\000\000\000\370\277ffffff\266?\000\000\000\000\000\000\370\277ffffff\266?\000\000\000\000\000\000\370\277ffffff\266?\000\000\000\000\000\000\370\277ffffff\266?\000\000\000\000\000\000\370\277ffffff\266?\000\000\000\000\000\000\370\277ffffff\266?\000\000\000\000\000\000\370\277ffffff\266?\000\000\000\000\000\000\370\277ffffff\266?\000\000\000\000\000\000\370\277ffffff\266?\000\000\000\000\000\000\370\277ffffff\266?\000\000\000\000\000\000\370\277ffffff\266?\000\000\000\000\000\000\370\277ffffff\266?\000\000\000\000\000\000\370\277ffffff\266?\000\000\000\000\000\000\370\277ffffff\266?\000\000\000\000\000\000\370\277ffffff\266?\000\000\000\000\000\000\370\277ffffff\266?\000\000\000\000\000\000\370\277ffffff\266?\000\000\000\000\000\000\370\277ffffff\266?\000\000\000\000\000\000\370\277ffffff\266?\000\000\000\000\000\000\370\277ffffff\266?\000\000\000\000\000\000\370\277ffffff\266?\000\000\000\000\000\000\370\277ffffff\266?\000\000\000\000\000\000\370\277ffffff\266?\000\000\000\000\000\000\370\277ffffff\266?\000\000\000\000\000\000\370\277ffffff\266?\000\000\000\000\000\000\370\277ffffff\266?\000\000\000\000\000\000\370\277ffffff\266?\000\000\000\000\000\000\370\277ffffff\266?\000\000\000\000\000\000\370\277ffffff\266?\000\000\000\000\000\000\370\277ffffff\266?\000\000\000\000\000\000\370\277ffffff\266?\000\000\000\000\000\000\370\277ffffff\266?\000\000\000\000\000\000\370\277ffffff\266?\000\000\000\000\000\000\370\277ffffff\266?\000\000\000\000\000\000\370\277ffffff\266?\000\000\000\000\000\000\370\277ffffff\266?\000\000\000\000\000\000\370\277ffffff\266?\000\000\000\000\000\000\370\277ffffff\266?\000\000\000\000\000\000\370\277ffffff\266?\000\000\000\000\000\000\370\277ffffff\266?\000\000\000\000\000\000\370\277ffffff\266?\000\000\000\000\000\000\370\277ffffff\266?\000\000\000\000\000\000\370\277ffffff\266?\000\000\000\000\000\000\370\277ffffff\266?\000\000\000\000\000\000\370\277ffffff\266?\000\000\000\000\000\000\370\277ffffff\266?\000\000\000\000\000\000\370\277ffffff\266?\000\000\000\000\000\000\370\277ffffff\266?\256(%\004\253\252\362\277:W\224\022\202U\225?\256(%\004\253\252\362\277:W\224\022\202U\225?\256(%\004\253\252\362\277:W\224\022\202U\225?\256(%\004\253\252\362\277:W\224\022\202U\225?\256(%\004\253\252\362\277:W\224\022\202U\225?\256(%\004\253\252\362\277:W\224\022\202U\225?\256(%\004\253\252\362\277:W\224\022\202U\225?\256(%\004\253\252\362\277:W\224\022\202U\225?\256(%\004\253\252\362\277:W\224\022\202U\225?\256(%\004\253\252\362\277:W\224\022\202U\225?\256(%\004\253\252\362\277:W\224\022\202U\225?\256(%\004\253\252\362\277:W\224\022\202U\225?\256(%\004\253\252\362\277:W\224\022\202U\225?\256(%\004\253\252\362\277:W\224\022\202U\225?\256(%\004\253\252\362\277:W\224\022\202U\225?\256(%\004\253\252\362\277:W\224\022\202U\225?\256(%\004\253\252\362\277:W\224\022\202U\225?\256(%\004\253\252\362\277:W\224\022\202U\225?\256(%\004\253\252\362\277:W\224\022\202U\225?\256(%\004\253\252\362\277:W\224\022\202U\225?\256(%\004\253\252\362\277:W\224\022\202U\225?\256(%\004\253\252\362\277:W\224\022\202U\225?\256(%\004\253\252\362\277:W\224\022\202U\225?\256(%\004\253\252\362\277:W\224\022\202U\225?\256(%\004\253\252\362\277:W\224\022\202U\225?\256(%\004\253\252\362\277:W\224\022\202U\225?\256(%\004\253\252\362\277:W\224\022\202U\225?\256(%\004\253\252\362\277:W\224\022\202U\225?\256(%\004\253\252\362\277:W\224\022\202U\225?\256(%\004\253\252\362\277:W\224\022\202U\225?\256(%\004\253\252\362\277:W\224\022\202U\225?\256(%\004\253\252\362\277:W\224\022\202U\225?\256(%\004\253\252\362\277:W\224\022\202U\225?\256(%\004\253\252\362\277:W\224\022\202U\225?\256(%\004\253\252\362\277:W\224\022\202U\225?\256(%\004\253\252\362\277:W\224\022\202U\225?\256(%\004\253\252\362\277:W\224\022\202U\225?\256(%\004\253\252\362\277:W\224\022\202U\225?\256(%\004\253\252\362\277:W\224\022\202U\225?\256(%\004\253\252\362\277:W\224\022\202U\225?\256(%\004\253\252\362\277:W\224\022\202U\225?\256(%\004\253\252\362\277:W\224\022\202U\225?\256(%\004\253\252\362\277:W\224\022\202U\225?\256(%\004\253\252\362\277:W\224\022\202U\225?\256(%\004\253\252\362\277:W\224\022\202U\225?\256(%\004\253\252\362\277:W\224\022\202U\225?\256(%\004\253\252\362\277:W\224\022\202U\225?\256(%\004\253\252\362\277:W\224\022\202U\225?\256(%\004\253\252\362\277:W\224\022\202U\225?\256(%\004\253\252\362\277:W\224\022\202U\225?]QJ\010VU\345?L\250\340\360\202\210\270?]QJ\010VU\345?L\250\340\360\202\210\270?]QJ\010VU\345?L\250\340\360\202\210\270?]QJ\010VU\345?L\250\340\360\202\210\270?]QJ\010VU\345?L\250\340\360\202\210\270?]QJ\010VU\345?L\250\340\360\202\210\270?]QJ\010VU\345?L\250\340\360\202\210\270?]QJ\010VU\345?L\250\340\360\202\210\270?]QJ\010VU\345?L\250\340\360\202\210\270?]QJ\010VU\345?L\250\340\360\202\210\270?]QJ\010VU\345?L\250\340\360\202\210\270?]QJ\010VU\345?L\250\340\360\202\210\270?]QJ\010VU\345?L\250\340\360\202\210\270?]QJ\010VU\345?L\250\340\360\202\210\270?]QJ\010VU\345?L\250\340\360\202\210\270?]QJ\010VU\345?L\250\340\360\202\210\270?]QJ\010VU\345?L\250\340\360\202\210\270?]QJ\010VU\345?L\250\340\360\202\210\270?]QJ\010VU\345?L\250\340\360\202\210\270?]QJ\010VU\345?L\250\340\360\202\210\270?]QJ\010VU\345?L\250\340\360\202\210\270?]QJ\010VU\345?L\250\340\360\202\210\270?]QJ\010VU\345?L\250\340\360\202\210\270?]QJ\010VU\345?L\250\340\360\202\210\270?]QJ\010VU\345?L\250\340\360\202\210\270?]QJ\010VU\345?L\250\340\360\202\210\270?]QJ\010VU\345?L\250\340\360\202\210\270?]QJ\010VU\345?L\250\340\360\202\210\270?]QJ\010VU\345?L\250\340\360\202\210\270?]QJ\010VU\345?L\250\340\360\202\210\270?]QJ\010VU\345?L\250\340\360\202\210\270?]QJ\010VU\345?L\250\340\360\202\210\270?]QJ\010VU\345?L\250\340\360\202\210\270?]QJ\010VU\345?L\250\340\360\202\210\270?]QJ\010VU\345?L\250\340\360\202\210\270?]QJ\010VU\345?L\250\340\360\202\210\270?]QJ\010VU\345?L\250\340\360\202\210\270?]QJ\010VU\345?L\250\340\360\202\210\270?]QJ\010VU\345?L\250\340\360\202\210\270?]QJ\010VU\345?L\250\340\360\202\210\270?]QJ\010VU\345?L\250\340\360\202\210\270?]QJ\010VU\345?L\250\340\360\202\210\270?]QJ\010VU\345?L\250\340\360\202\210\270?]QJ\010VU\345?L\250\340\360\202\210\270?]QJ\010VU\345?L\250\340\360\202\210\270?]QJ\010VU\345?L\250\340\360\202\210\270?]QJ\010VU\345?L\250\340\360\202\210\270?]QJ\010VU\345?L\250\340\360\202\210\270?]QJ\010VU\345?L\250\340\360\202\210\270?]QJ\010VU\345?L\250\340\360\202\210\270?\000\000\000\000\000\000\370\277\201$\354\333ID\264?\000\000\000\000\000\000\370\277\201$\354\333ID\264?\000\000\000\000\000\000\370\277\201$\354\333ID\264?\000\000\000\000\000\000\370\277\201$\354\333ID\264?\000\000\000\000\000\000\370\277\201$\354\333ID\264?\000\000\000\000\000\000\370\277\201$\354\333ID\264?\000\000\000\000\000\000\370\277\201$\354\333ID\264?\000\000\000\000\000\000\370\277\201$\354\333ID\264?\000\000\000\000\000\000\370\277\201$\354\333ID\264?\000\000\000\000\000\000\370\277\201$\354\333ID\264?\000\000\000\000\000\000\370\277\201$\354\333ID\264?\000\000\000\000\000\000\370\277\201$\354\333ID\264?\000\000\000\000\000\000\370\277\201$\354\333ID\264?\000\000\000\000\000\000\370\277\201$\354\333ID\264?\000\000\000\000\000\000\370\277\201$\354\333ID\264?\000\000\000\000\000\000\370\277\201$\354\333ID\264?\000\000\000\000\000\000\370\277\201$\354\333ID\264?\000\000\000\000\000\000\370\277\201$\354\333ID\264?\000\000\000\000\000\000\370\277\201$\354\333ID\264?\000\000\000\000\000\000\370\277\201$\354\333ID\264?\000\000\000\000\000\000\370\277\201$\354\333ID\264?\000\000\000\000\000\000\370\277\201$\354\333ID\264?\000\000\000\000\000\000\370\277\201$\354\333ID\264?\000\000\000\000\000\000\370\277\201$\354\333ID\264?\000\000\000\000\000\000\370\277\201$\354\333ID\264?\000\000\000\000\000\000\370\277\201$\354\333ID\264?\000\000\000\000\000\000\370\277\201$\354\333ID\264?\000\000\000\000\000\000\370\277\201$\354\333ID\264?\000\000\000\000\000\000\370\277\201$\354\333ID\264?\000\000\000\000\000\000\370\277\201$\354\333ID\264?\000\000\000\000\000\000\370\277\201$\354\333ID\264?\000\000\000\000\000\000\370\277\201$\354\333ID\264?\000\000\000\000\000\000\370\277\201$\354\333ID\264?\000\000\000\000\000\000\370\277\201$\354\333ID\264?\000\000\000\000\000\000\370\277\201$\354\333ID\264?\000\000\000\000\000\000\370\277\201$\354\333ID\264?\000\000\000\000\000\000\370\277\201$\354\333ID\264?\000\000\000\000\000\000\370\277\201$\354\333ID\264?\000\000\000\000\000\000\370\277\201$\354\333ID\264?\000\000\000\000\000\000\370\277\201$\354\333ID\264?\000\000\000\000\000\000\370\277\201$\354\333ID\264?\000\000\000\000\000\000\370\277\201$\354\333ID\264?\000\000\000\000\000\000\370\277\201$\354\333ID\264?\000\000\000\000\000\000\370\277\201$\354\333ID\264?\000\000\000\000\000\000\370\277\201$\354\333ID\264?\000\000\000\000\000\000\370\277\201$\354\333ID\264?\000\000\000\000\000\000\370\277\201$\354\333ID\264?\000\000\000\000\000\000\370\277\201$\354\333ID\264?\000\000\000\000\000\000\370\277\201$\354\333ID\264?\000\000\000\000\000\000\370\277\201$\354\333ID\264?\000\000\000\000\000\000\360?I\237V\321\037\232\211?\000\000\000\000\000\000\360?I\237V\321\037\232\211?\000\000\000\000\000\000\360?I\237V\321\037\232\211?\000\000\000\000\000\000\360?I\237V\321\037\232\211?\000\000\000\000\000\000\360?I\237V\321\037\232\211?\000\000\000\000\000\000\360?I\237V\321\037\232\211?\000\000\000\000\000\000\360?I\237V\321\037\232\211?\000\000\000\000\000\000\360?I\237V\321\037\232\211?\000\000\000\000\000\000\360?I\237V\321\037\232\211?\000\000\000\000\000\000\360?I\237V\321\037\232\211?\000\000\000\000\000\000\360?I\237V\321\037\232\211?\000\000\000\000\000\000\360?I\237V\321\037\232\211?\000\000\000\000\000\000\360?I\237V\321\037\232\211?\000\000\000\000\000\000\360?I\237V\321\037\232\211?\000\000\000\000\000\000\360?I\237V\321\037\232\211?\000\000\000\000\000\000\360?I\237V\321\037\232\211?\000\000\000\000\000\000\360?I\237V\321\037\232\211?\000\000\000\000\000\000\360?I\237V\321\037\232\211?\000\000\000\000\000\000\360?I\237V\321\037\232\211?\000\000\000\000\000\000\360?I\237V\321\037\232\211?\000\000\000\000\000\000\360?I\237V\321\037\232\211?\000\000\000\000\000\000\360?I\237V\321\037\232\211?\000\000\000\000\000\000\360?I\237V\321\037\232\211?\000\000\000\000\000\000\360?I\237V\321\037\232\211?\000\000\000\000\000\000\360?I\237V\321\037\232\211?\000\000\000\000\000\000\360?I\237V\321\037\232\211?\000\000\000\000\000\000\360?I\237V\321\037\232\211?\000\000\000\000\000\000\360?I\237V\321\037\232\211?\000\000\000\000\000\000\360?I\237V\321\037\232\211?\000\000\000\000\000\000\360?I\237V\321\037\232\211?\000\000\000\000\000\000\360?I\237V\321\037\232\211?\000\000\000\000\000\000\360?I\237V\321\037\232\211?\000\000\000\000\000\000\360?I\237V\321\037\232\211?\000\000\000\000\000\000\360?I\237V\321\037\232\211?\000\000\000\000\000\000\360?I\237V\321\037\232\211?\000\000\000\000\000\000\360?I\237V\321\037\232\211?\000\000\000\000\000\000\360?I\237V\321\037\232\211?\000\000\000\000\000\000\360?I\237V\321\037\232\211?\000\000\000\000\000\000\360?I\237V\321\037\232\211?\000\000\000\000\000\000\360?I\237V\321\037\232\211?\000\000\000\000\000\000\360?I\237V\321\037\232\211?\000\000\000\000\000\000\360?I\237V\321\037\232\211?\000\000\000\000\000\000\360?I\237V\321\037\232\211?\000\000\000\000\000\000\360?I\237V\321\037\232\211?\000\000\000\000\000\000\360?I\237V\321\037\232\211?\000\000\000\000\000\000\360?I\237V\321\037\232\211?\000\000\000\000\000\000\360?I\237V\321\037\232\211?\000\000\000\000\000\000\360?I\237V\321\037\232\211?\000\000\000\000\000\000\360?I\237V\321\037\232\211?\000\000\000\000\000\000\360?I\237V\321\037\232\211?W\224\022\202UU\005\300N\361\270\250\026\021\261?W\224\022\202UU\005\300N\361\270\250\026\021\261?W\224\022\202UU\005\300N\361\270\250\026\021\261?W\224\022\202UU\005\300N\361\270\250\026\021\261?W\224\022\202UU\005\300N\361\270\250\026\021\261?W\224\022\202UU\005\300N\361\270\250\026\021\261?W\224\022\202UU\005\300N\361\270\250\026\021\261?W\224\022\202UU\005\300N\361\270\250\026\021\261?W\224\022\202UU\005\300N\361\270\250\026\021\261?W\224\022\202UU\005\300N\361\270\250\026\021\261?W\224\022\202UU\005\300N\361\270\250\026\021\261?W\224\022\202UU\005\300N\361\270\250\026\021\261?W\224\022\202UU\005\300N\361\270\250\026\021\261?W\224\022\202UU\005\300N\361\270\250\026\021\261?W\224\022\202UU\005\300N\361\270\250\026\021\261?W\224\022\202UU\005\300N\361\270\250\026\021\261?W\224\022\202UU\005\300N\361\270\250\026\021\261?W\224\022\202UU\005\300N\361\270\250\026\021\261?W\224\022\202UU\005\300N\361\270\250\026\021\261?W\224\022\202UU\005\300N\361\270\250\026\021\261?W\224\022\202UU\005\300N\361\270\250\026\021\261?W\224\022\202UU\005\300N\361\270\250\026\021\261?W\224\022\202UU\005\300N\361\270\250\026\021\261?W\224\022\202UU\005\300N\361\270\250\026\021\261?W\224\022\202UU\005\300N\361\270\250\026\021\261?W\224\022\202UU\005\300N\361\270\250\026\021\261?W\224\022\202UU\005\300N\361\270\250\026\021\261?W\224\022\202UU\005\300N\361\270\250\026\021\261?W\224\022\202UU\005\300N\361\270\250\026\021\261?W\224\022\202UU\005\300N\361\270\250\026\021\261?W\224\022\202UU\005\300N\361\270\250\026\021\261?W\224\022\202UU\005\300N\361\270\250\026\021\261?W\224\022\202UU\005\300N\361\270\250\026\021\261?W\224\022\202UU\005\300N\361\270\250\026\021\261?W\224\022\202UU\005\300N\361\270\250\026\021\261?W\224\022\202UU\005\300N\361\270\250\026\021\261?W\224\022\202UU\005\300N\361\270\250\026\021\261?W\224\022\202UU\005\300N\361\270\250\026\021\261?W\224\022\202UU\005\300N\361\270\250\026\021\261?W\224\022\202UU\005\300N\361\270\250\026\021\261?W\224\022\202UU\005\300N\361\270\250\026\021\261?W\224\022\202UU\005\300N\361\270\250\026\021\261?W\224\022\202UU\005\300N\361\270\250\026\021\261?W\224\022\202UU\005\300N\361\270\250\026\021\261?W\224\022\202UU\005\300N\361\270\250\026\021\261?W\224\022\202UU\005\300N\361\270\250\026\021\261?W\224\022\202UU\005\300N\361\270\250\026\021\261?W\224\022\202UU\005\300N\361\270\250\026\021\261?W\224\022\202UU\005\300N\361\270\250\026\021\261?W\224\022\202UU\005\300N\361\270\250\026\021\261?\256(%\004\253\252\362\277\232\231\231\231\231\231\271?\256(%\004\253\252\362\277\232\231\231\231\231\231\271?\256(%\004\253\252\362\277\232\231\231\231\231\231\271?\256(%\004\253\252\362\277\232\231\231\231\231\231\271?\256(%\004\253\252\362\277\232\231\231\231\231\231\271?\256(%\004\253\252\362\277\232\231\231\231\231\231\271?\256(%\004\253\252\362\277\232\231\231\231\231\231\271?\256(%\004\253\252\362\277\232\231\231\231\231\231\271?\256(%\004\253\252\362\277\232\231\231\231\231\231\271?\256(%\004\253\252\362\277\232\231\231\231\231\231\271?\256(%\004\253\252\362\277\232\231\231\231\231\231\271?\256(%\004\253\252\362\277\232\231\231\231\231\231\271?\256(%\004\253\252\362\277\232\231\231\231\231\231\271?\256(%\004\253\252\362\277\232\231\231\231\231\231\271?\256(%\004\253\252\362\277\232\231\231\231\231\231\271?\256(%\004\253\252\362\277\232\231\231\231\231\231\271?\256(%\004\253\252\362\277\232\231\231\231\231\231\271?\256(%\004\253\252\362\277\232\231\231\231\231\231\271?\256(%\004\253\252\362\277\232\231\231\231\231\231\271?\256(%\004\253\252\362\277\232\231\231\231\231\231\271?\256(%\004\253\252\362\277\232\231\231\231\231\231\271?\256(%\004\253\252\362\277\232\231\231\231\231\231\271?\256(%\004\253\252\362\277\232\231\231\231\231\231\271?\256(%\004\253\252\362\277\232\231\231\231\231\231\271?\256(%\004\253\252\362\277\232\231\231\231\231\231\271?\256(%\004\253\252\362\277\232\231\231\231\231\231\271?\256(%\004\253\252\362\277\232\231\231\231\231\231\271?\256(%\004\253\252\362\277\232\231\231\231\231\231\271?\256(%\004\253\252\362\277\232\231\231\231\231\231\271?\256(%\004\253\252\362\277\232\231\231\231\231\231\271?\256(%\004\253\252\362\277\232\231\231\231\231\231\271?\256(%\004\253\252\362\277\232\231\231\231\231\231\271?\256(%\004\253\252\362\277\232\231\231\231\231\231\271?\256(%\004\253\252\362\277\232\231\231\231\231\231\271?\256(%\004\253\252\362\277\232\231\231\231\231\231\271?\256(%\004\253\252\362\277\232\231\231\231\231\231\271?\256(%\004\253\252\362\277\232\231\231\231\231\231\271?\256(%\004\253\252\362\277\232\231\231\231\231\231\271?\256(%\004\253\252\362\277\232\231\231\231\231\231\271?\256(%\004\253\252\362\277\232\231\231\231\231\231\271?\256(%\004\253\252\362\277\232\231\231\231\231\231\271?\256(%\004\253\252\362\277\232\231\231\231\231\231\271?\256(%\004\253\252\362\277\232\231\231\231\231\231\271?\256(%\004\253\252\362\277\232\231\231\231\231\231\271?\256(%\004\253\252\362\277\232\231\231\231\231\231\271?\256(%\004\253\252\362\277\232\231\231\231\231\231\271?\256(%\004\253\252\362\277\232\231\231\231\231\231\271?\256(%\004\253\252\362\277\232\231\231\231\231\231\271?\256(%\004\253\252\362\277\232\231\231\231\231\231\271?\256(%\004\253\252\362\277\232\231\231\231\231\231\271?\000\000\000\000\000\000\010\300q\034x\265\334\231\231?\000\000\000\000\000\000\010\300q\034x\265\334\231\231?\000\000\000\000\000\000\010\300q\034x\265\334\231\231?\000\000\000\000\000\000\010\300q\034x\265\334\231\231?\000\000\000\000\000\000\010\300q\034x\265\334\231\231?\000\000\000\000\000\000\010\300q\034x\265\334\231\231?\000\000\000\000\000\000\010\300q\034x\265\334\231\231?\000\000\000\000\000\000\010\300q\034x\265\334\231\231?\000\000\000\000\000\000\010\300q\034x\265\334\231\231?\000\000\000\000\000\000\010\300q\034x\265\334\231\231?\000\000\000\000\000\000\010\300q\034x\265\334\231\231?\000\000\000\000\000\000\010\300q\034x\265\334\231\231?\000\000\000\000\000\000\010\300q\034x\265\334\231\231?\000\000\000\000\000\000\010\300q\034x\265\334\231\231?\000\000\000\000\000\000\010\300q\034x\265\334\231\231?\000\000\000\000\000\000\010\300q\034x\265\334\231\231?\000\000\000\000\000\000\010\300q\034x\265\334\231\231?\000\000\000\000\000\000\010\300q\034x\265\334\231\231?\000\000\000\000\000\000\010\300q\034x\265\334\231\231?\000\000\000\000\000\000\010\300q\034x\265\334\231\231?\000\000\000\000\000\000\010\300q\034x\265\334\231\231?\000\000\000\000\000\000\010\300q\034x\265\334\231\231?\000\000\000\000\000\000\010\300q\034x\265\334\231\231?\000\000\000\000\000\000\010\300q\034x\265\334\231\231?\000\000\000\000\000\000\010\300q\034x\265\334\231\231?\000\000\000\000\000\000\010\300q\034x\265\334\231\231?\000\000\000\000\000\000\010\300q\034x\265\334\231\231?\000\000\000\000\000\000\010\300q\034x\265\334\231\231?\000\000\000\000\000\000\010\300q\034x\265\334\231\231?\000\000\000\000\000\000\010\300q\034x\265\334\231\231?\000\000\000\000\000\000\010\300q\034x\265\334\231\231?\000\000\000\000\000\000\010\300q\034x\265\334\231\231?\000\000\000\000\000\000\010\300q\034x\265\334\231\231?\000\000\000\000\000\000\010\300q\034x\265\334\231\231?\000\000\000\000\000\000\010\300q\034x\265\334\231\231?\000\000\000\000\000\000\010\300q\034x\265\334\231\231?\000\000\000\000\000\000\010\300q\034x\265\334\231\231?\000\000\000\000\000\000\010\300q\034x\265\334\231\231?\000\000\000\000\000\000\010\300q\034x\265\334\231\231?\000\000\000\000\000\000\010\300q\034x\265\334\231\231?\000\000\000\000\000\000\010\300q\034x\265\334\231\231?\000\000\000\000\000\000\010\300q\034x\265\334\231\231?\000\000\000\000\000\000\010\300q\034x\265\334\231\231?\000\000\000\000\000\000\010\300q\034x\265\334\231\231?\000\000\000\000\000\000\010\300q\034x\265\334\231\231?\000\000\000\000\000\000\010\300q\034x\265\334\231\231?\000\000\000\000\000\000\010\300q\034x\265\334\231\231?\000\000\000\000\000\000\010\300q\034x\265\334\231\231?\000\000\000\000\000\000\010\300q\034x\265\334\231\231?\000\000\000\000\000\000\010\300q\034x\265\334\231\231?\000\000\000\000\000\000\360?\005\333\210\'\273\231\251?\000\000\000\000\000\000\360?\005\333\210\'\273\231\251?\000\000\000\000\000\000\360?\005\333\210\'\273\231\251?\000\000\000\000\000\000\360?\005\333\210\'\273\231\251?\000\000\000\000\000\000\360?\005\333\210\'\273\231\251?\000\000\000\000\000\000\360?\005\333\210\'\273\231\251?\000\000\000\000\000\000\360?\005\333\210\'\273\231\251?\000\000\000\000\000\000\360?\005\333\210\'\273\231\251?\000\000\000\000\000\000\360?\005\333\210\'\273\231\251?\000\000\000\000\000\000\360?\005\333\210\'\273\231\251?\000\000\000\000\000\000\360?\005\333\210\'\273\231\251?\000\000\000\000\000\000\360?\005\333\210\'\273\231\251?\000\000\000\000\000\000\360?\005\333\210\'\273\231\251?\000\000\000\000\000\000\360?\005\333\210\'\273\231\251?\000\000\000\000\000\000\360?\005\333\210\'\273\231\251?\000\000\000\000\000\000\360?\005\333\210\'\273\231\251?\000\000\000\000\000\000\360?\005\333\210\'\273\231\251?\000\000\000\000\000\000\360?\005\333\210\'\273\231\251?\000\000\000\000\000\000\360?\005\333\210\'\273\231\251?\000\000\000\000\000\000\360?\005\333\210\'\273\231\251?\000\000\000\000\000\000\360?\005\333\210\'\273\231\251?\000\000\000\000\000\000\360?\005\333\210\'\273\231\251?\000\000\000\000\000\000\360?\005\333\210\'\273\231\251?\000\000\000\000\000\000\360?\005\333\210\'\273\231\251?\000\000\000\000\000\000\360?\005\333\210\'\273\231\251?\000\000\000\000\000\000\360?\005\333\210\'\273\231\251?\000\000\000\000\000\000\360?\005\333\210\'\273\231\251?\000\000\000\000\000\000\360?\005\333\210\'\273\231\251?\000\000\000\000\000\000\360?\005\333\210\'\273\231\251?\000\000\000\000\000\000\360?\005\333\210\'\273\231\251?\000\000\000\000\000\000\360?\005\333\210\'\273\231\251?\000\000\000\000\000\000\360?\005\333\210\'\273\231\251?\000\000\000\000\000\000\360?\005\333\210\'\273\231\251?\000\000\000\000\000\000\360?\005\333\210\'\273\231\251?\000\000\000\000\000\000\360?\005\333\210\'\273\231\251?\000\000\000\000\000\000\360?\005\333\210\'\273\2